SOS	0
EOS	1
##dberg	2
follow	3
taiwan	4
pasture	5
tape	6
maker	7
hold	8
##tera	9
accompany	10
forums	11
showing	12
colonies	13
taxi	14
spilled	15
go	16
accredited	17
logged	18
investigation	19
months	20
budapest	21
harry	22
constitution	23
meeting	24
popular	25
sneak	26
tap	27
accept	28
bulldog	29
audience	30
knives	31
introducing	32
juvenile	33
tel	34
translation	35
##tas	36
finalist	37
##vers	38
##ock	39
oil	40
carved	41
cried	42
licence	43
conservative	44
proceed	45
phrases	46
##ge	47
##ini	48
##ch	49
awful	50
swiftly	51
khalifa	52
sooner	53
##ria	54
frequent	55
break	56
participants	57
##vor	58
friendships	59
serve	60
mystery	61
wig	62
fires	63
##ls	64
ticket	65
##mute	66
##iz	67
tenure	68
ought	69
grass	70
dialed	71
proof	72
##aint	73
angola	74
nana	75
cheeks	76
fun	77
content	78
##uding	79
needle	80
support	81
beasts	82
automatic	83
punished	84
steer	85
cheese	86
decent	87
play	88
bragg	89
bring	90
coats	91
##ih	92
skyscraper	93
remember	94
plum	95
crushed	96
somewhere	97
greeks	98
peacock	99
tore	100
civilized	101
conspicuous	102
butler	103
progressing	104
ideal	105
anatomy	106
rusty	107
undo	108
objects	109
rocks	110
notes	111
scholars	112
surprisingly	113
1912	114
golf	115
ufo	116
dozen	117
prevented	118
hum	119
do	120
interrupt	121
fishermen	122
ground	123
ocean	124
frank	125
stake	126
trials	127
funny	128
cha	129
cringed	130
remain	131
awaiting	132
jointly	133
irrelevant	134
allowing	135
protected	136
beers	137
top	138
silver	139
##em	140
volcano	141
confuse	142
theory	143
research	144
sympathy	145
ness	146
##liga	147
##leen	148
contacted	149
mary	150
generally	151
lake	152
gates	153
downhill	154
step	155
licked	156
nik	157
mission	158
##vable	159
dangerous	160
accomplish	161
knock	162
ligament	163
##if	164
shares	165
planes	166
invariably	167
absolute	168
festivals	169
print	170
ally	171
architectural	172
slammed	173
grid	174
championships	175
supernatural	176
clipped	177
astro	178
effective	179
assuming	180
searching	181
patents	182
soluble	183
earliest	184
prefers	185
tease	186
##naire	187
lectures	188
background	189
photo	190
finland	191
safety	192
trembling	193
gus	194
deployment	195
losses	196
arm	197
##mail	198
vase	199
bikini	200
##tively	201
##raine	202
communication	203
curves	204
##ren	205
courthouse	206
blinded	207
skip	208
amazing	209
prevailed	210
##fixed	211
discovery	212
##rent	213
olympic	214
activation	215
seats	216
topics	217
##cha	218
contributing	219
provoke	220
nonsense	221
##fi	222
ashamed	223
distant	224
gall	225
thousands	226
introduced	227
##kes	228
meetings	229
ratio	230
always	231
deserved	232
flush	233
baseball	234
runners	235
galleries	236
saint	237
highlands	238
imports	239
industrial	240
events	241
eleventh	242
##oid	243
join	244
hoax	245
artistic	246
barriers	247
hasn	248
none	249
visions	250
##lance	251
comment	252
##burn	253
defended	254
profile	255
approximately	256
elk	257
movement	258
##ot	259
forgiveness	260
warn	261
confrontation	262
becoming	263
shouts	264
pigeon	265
worry	266
ai	267
awkwardly	268
sings	269
prospect	270
leave	271
##weight	272
peace	273
##ori	274
satellites	275
joint	276
rebellion	277
floppy	278
magazine	279
##oed	280
raised	281
tool	282
mathematics	283
1988	284
applying	285
docked	286
royal	287
##ole	288
stayed	289
tolerate	290
##jer	291
bangkok	292
##therapy	293
warfare	294
pensions	295
shutting	296
mustered	297
##val	298
grandfather	299
soc	300
micro	301
prefecture	302
##iate	303
suffers	304
misunderstanding	305
beyond	306
pillows	307
farther	308
rescue	309
##rou	310
school	311
rode	312
##il	313
uncle	314
grandmother	315
organizations	316
coincide	317
hotels	318
##run	319
cover	320
experts	321
watching	322
canary	323
disguise	324
remains	325
##len	326
##up	327
##iri	328
politely	329
coast	330
hanover	331
sails	332
yokohama	333
archaeologist	334
threat	335
engineered	336
antibiotics	337
demands	338
earrings	339
friendship	340
lose	341
ghost	342
hating	343
##holding	344
asks	345
hiring	346
##ful	347
directory	348
11	349
sides	350
##rting	351
aiding	352
rooftop	353
deliberate	354
sorted	355
thieves	356
##ry	357
149	358
bearing	359
moments	360
practices	361
present	362
adds	363
believe	364
combat	365
##ante	366
servant	367
portrait	368
##cas	369
base	370
soil	371
wherever	372
criticized	373
couples	374
manner	375
secretaries	376
pointless	377
aware	378
unclear	379
englishman	380
mighty	381
##ical	382
feared	383
villages	384
bottle	385
archeological	386
awkward	387
compensate	388
thus	389
complicated	390
disdain	391
increase	392
##nable	393
publicly	394
more	395
##my	396
belong	397
##igan	398
system	399
tub	400
##bolic	401
approval	402
bo	403
##law	404
armchair	405
me	406
negotiations	407
rarely	408
rather	409
70th	410
arrangement	411
airs	412
gifted	413
guest	414
gets	415
##ines	416
withdraw	417
signing	418
amend	419
##me	420
importance	421
reports	422
reminds	423
observe	424
tex	425
recently	426
##ded	427
vivid	428
stare	429
effect	430
disciples	431
fiscal	432
ethiopia	433
madeira	434
thin	435
lets	436
trash	437
poll	438
stained	439
blow	440
drops	441
suffering	442
##hop	443
douglas	444
internal	445
looking	446
safeguard	447
sophisticated	448
technically	449
##nation	450
occurring	451
steal	452
##22	453
denies	454
rink	455
dea	456
religious	457
sirens	458
appealed	459
assault	460
feed	461
superiors	462
worked	463
robert	464
cages	465
ignition	466
participates	467
##rise	468
##icides	469
alps	470
enormous	471
##sm	472
asserted	473
poverty	474
specialist	475
secrets	476
##table	477
gang	478
trench	479
pollution	480
##ura	481
peru	482
##craft	483
employment	484
basin	485
##ties	486
relatives	487
melody	488
prejudice	489
frame	490
cola	491
dripping	492
illinois	493
reception	494
while	495
labels	496
sewage	497
tremble	498
14	499
##loading	500
tango	501
flawless	502
marry	503
thumbs	504
fighters	505
derelict	506
frost	507
phones	508
doubted	509
##sive	510
bounce	511
worker	512
hawaiian	513
unbeaten	514
mixture	515
decisive	516
kissing	517
tropical	518
victorious	519
##rts	520
bills	521
sober	522
weaker	523
dawn	524
##sh	525
toilet	526
captured	527
accurately	528
council	529
tender	530
catch	531
francisco	532
carpenter	533
##osta	534
vi	535
opens	536
fide	537
pacific	538
ambushed	539
deliver	540
files	541
restraint	542
stimulating	543
tasting	544
ups	545
maternity	546
##sty	547
##igraphy	548
havoc	549
quota	550
pepper	551
##cation	552
##sonic	553
corporate	554
intention	555
senator	556
slave	557
could	558
##ient	559
motionless	560
bothering	561
athletic	562
custody	563
branch	564
tip	565
##arium	566
chip	567
##oh	568
results	569
ray	570
seeds	571
fog	572
##ion	573
plate	574
scala	575
##cise	576
actions	577
##front	578
##going	579
further	580
features	581
alternative	582
fraction	583
takeoff	584
resistance	585
ina	586
adamant	587
shorter	588
##mis	589
suppose	590
gaul	591
needs	592
practically	593
poisonous	594
flooded	595
galileo	596
embarrassed	597
amateur	598
clearing	599
##cke	600
navy	601
sends	602
##ol	603
teased	604
##ade	605
personality	606
cooke	607
revealed	608
flows	609
##uis	610
##tern	611
apart	612
climbed	613
superman	614
flies	615
skull	616
burned	617
10	618
associate	619
##child	620
expecting	621
champion	622
about	623
smaller	624
piece	625
##fl	626
carbon	627
##xide	628
##raf	629
entertaining	630
expose	631
occupies	632
obscene	633
enjoys	634
##achi	635
giggled	636
undone	637
famous	638
##ber	639
divine	640
speaking	641
charming	642
bacon	643
1987	644
holiday	645
connecting	646
vague	647
8	648
spin	649
negative	650
temperament	651
la	652
##ens	653
footprints	654
bully	655
brushes	656
sequence	657
##ime	658
injury	659
dj	660
##utation	661
write	662
junior	663
frightened	664
million	665
##dies	666
mr	667
spun	668
combination	669
burma	670
rising	671
assigned	672
officially	673
proved	674
regulate	675
##anies	676
##tton	677
bilingual	678
invention	679
causes	680
cheap	681
g	682
recorder	683
engineering	684
sympathetic	685
elsewhere	686
##cut	687
special	688
paperback	689
strive	690
patients	691
##u	692
haiti	693
respective	694
dreamed	695
security	696
comet	697
governor	698
changes	699
list	700
wheels	701
size	702
hungry	703
worsened	704
roots	705
tomato	706
warring	707
expect	708
1990	709
glide	710
violate	711
knocking	712
aged	713
male	714
personally	715
editorial	716
##co	717
pole	718
screwed	719
prevents	720
##race	721
survive	722
sunrise	723
paradise	724
admits	725
quarterly	726
who	727
manhattan	728
affection	729
boundaries	730
forget	731
unsure	732
shipbuilding	733
prior	734
marches	735
##hor	736
##ial	737
graduated	738
marie	739
extremely	740
stuck	741
accepting	742
sincerely	743
employees	744
##written	745
appliances	746
##titled	747
possession	748
divide	749
physician	750
forehead	751
fortune	752
thrust	753
uncomfortable	754
##ha	755
wins	756
legitimate	757
trophy	758
bel	759
crowded	760
pup	761
fulfilled	762
’	763
hem	764
civilization	765
shock	766
neville	767
fork	768
consumers	769
seriously	770
wealthy	771
##hammer	772
challenges	773
india	774
de	775
1814	776
encourage	777
tent	778
wagon	779
qu	780
brook	781
shortages	782
things	783
chose	784
cradle	785
twelfth	786
##fat	787
chicks	788
overlooked	789
##ced	790
120	791
tack	792
adapted	793
pedal	794
paused	795
##cious	796
venom	797
hawaii	798
keeps	799
dramatic	800
vulgar	801
trick	802
##mer	803
steals	804
curled	805
railways	806
rosa	807
##lice	808
app	809
gym	810
foam	811
bandits	812
##use	813
##anto	814
tours	815
penalty	816
flames	817
departed	818
desperation	819
rocky	820
venture	821
happiness	822
rot	823
integrity	824
crystal	825
slam	826
bearings	827
prophecy	828
##ulate	829
escort	830
damp	831
competitive	832
psyche	833
failed	834
shakespeare	835
adherents	836
recreational	837
bank	838
corrections	839
tally	840
##ibly	841
##ek	842
haven	843
##lla	844
margins	845
closer	846
200	847
set	848
mask	849
defending	850
substances	851
ropes	852
hyper	853
##it	854
sent	855
peach	856
attracted	857
pharmacy	858
red	859
highlighted	860
rabbit	861
deny	862
gettysburg	863
economic	864
al	865
conceived	866
didn	867
meet	868
vertical	869
solemn	870
unaware	871
outlined	872
confess	873
intersection	874
rang	875
unmarried	876
pity	877
ink	878
multiplication	879
helps	880
vehicles	881
stamps	882
decline	883
za	884
cultivated	885
funeral	886
sphere	887
##nished	888
required	889
burger	890
necessary	891
##ju	892
binding	893
##ling	894
isolation	895
undercover	896
vaccine	897
beliefs	898
airports	899
##gling	900
require	901
ways	902
##ude	903
slacks	904
edo	905
concentration	906
arrived	907
##ule	908
pub	909
associated	910
ann	911
45	912
differs	913
vienna	914
scientific	915
bitterly	916
hysterical	917
nectar	918
revolutions	919
bringing	920
jumps	921
comforting	922
breast	923
##ened	924
homeless	925
breeding	926
obvious	927
senses	928
used	929
discussion	930
reform	931
eighteen	932
garlic	933
notice	934
dissatisfied	935
gaining	936
fits	937
outdated	938
airline	939
kyiv	940
classic	941
agreement	942
fans	943
wreck	944
bela	945
obe	946
relation	947
day	948
##vili	949
sort	950
gestures	951
assassinate	952
view	953
17th	954
creditors	955
explained	956
drained	957
cr	958
sharks	959
makes	960
glass	961
arrangements	962
##ak	963
humanities	964
fore	965
named	966
steps	967
##ust	968
lu	969
squeeze	970
thorough	971
questioning	972
commonplace	973
v	974
shown	975
19th	976
parties	977
condition	978
awesome	979
double	980
installed	981
hectares	982
covers	983
en	984
hebrew	985
##ttle	986
!	987
##men	988
sinking	989
fellows	990
sliced	991
barack	992
rises	993
##cy	994
hop	995
of	996
boycott	997
signatures	998
defeated	999
distinguishing	1000
finances	1001
endings	1002
vicious	1003
restart	1004
wedding	1005
brace	1006
investigate	1007
sandwiches	1008
fish	1009
##ete	1010
bruises	1011
ear	1012
accepted	1013
fruit	1014
##led	1015
kgb	1016
drawing	1017
gone	1018
princess	1019
##ddling	1020
##rah	1021
original	1022
yellow	1023
##ses	1024
compensation	1025
sarcastic	1026
countries	1027
relativity	1028
pluto	1029
coincidence	1030
abandon	1031
wrist	1032
##rang	1033
foreign	1034
oppose	1035
##bel	1036
deafening	1037
dies	1038
palace	1039
continuous	1040
##ci	1041
babies	1042
optional	1043
##sling	1044
mono	1045
forms	1046
registration	1047
##ored	1048
##dd	1049
boxes	1050
politically	1051
that	1052
numerous	1053
cameras	1054
##ggy	1055
centered	1056
trips	1057
stem	1058
pork	1059
rigorous	1060
bag	1061
rooms	1062
grave	1063
dove	1064
penny	1065
respect	1066
phone	1067
##rth	1068
computational	1069
timing	1070
samples	1071
consume	1072
agriculture	1073
pine	1074
temporarily	1075
slowly	1076
barked	1077
praised	1078
theorists	1079
con	1080
sleep	1081
twinkle	1082
ford	1083
##rating	1084
aired	1085
speak	1086
debt	1087
suicide	1088
massage	1089
chile	1090
thug	1091
ants	1092
classified	1093
kitten	1094
reply	1095
##rian	1096
ushered	1097
controls	1098
naples	1099
saloon	1100
convincing	1101
futuristic	1102
backwards	1103
##dos	1104
m	1105
warrior	1106
zoom	1107
##tious	1108
##ary	1109
quantities	1110
difference	1111
satisfied	1112
spine	1113
distortion	1114
panda	1115
##taro	1116
tight	1117
composition	1118
coughing	1119
speech	1120
##wise	1121
careless	1122
70	1123
corpus	1124
solving	1125
designated	1126
employ	1127
mediterranean	1128
compliment	1129
lyrics	1130
supermarkets	1131
thrilled	1132
testimony	1133
liked	1134
slowed	1135
information	1136
current	1137
dates	1138
##ago	1139
36	1140
clubs	1141
traditional	1142
promised	1143
permits	1144
ruins	1145
attained	1146
jewels	1147
pantry	1148
connection	1149
regardless	1150
boasts	1151
contributes	1152
sous	1153
$	1154
corruption	1155
locally	1156
tablets	1157
gentle	1158
rolled	1159
yugoslavia	1160
scarcely	1161
##py	1162
praise	1163
##line	1164
lack	1165
techniques	1166
flower	1167
gathered	1168
stepping	1169
considerably	1170
myths	1171
dive	1172
courage	1173
omitted	1174
supervising	1175
stands	1176
##erson	1177
valentine	1178
crossed	1179
##cco	1180
presented	1181
consecutive	1182
collapsed	1183
old	1184
ap	1185
banquet	1186
##piece	1187
pie	1188
qualifications	1189
##tr	1190
possessed	1191
chapel	1192
##ast	1193
endeavor	1194
jupiter	1195
##uda	1196
expression	1197
tried	1198
worth	1199
town	1200
incorrectly	1201
continue	1202
referring	1203
reliable	1204
clues	1205
beat	1206
reviewed	1207
leap	1208
maintain	1209
supposed	1210
oyster	1211
willed	1212
rap	1213
vulnerable	1214
others	1215
fourteen	1216
super	1217
deficit	1218
prisons	1219
ashes	1220
fat	1221
wave	1222
bowl	1223
trace	1224
##id	1225
##ony	1226
##ate	1227
##ways	1228
##lly	1229
reforms	1230
equal	1231
celebrating	1232
winced	1233
76	1234
##wheel	1235
flour	1236
consumption	1237
##open	1238
folk	1239
##а	1240
congregation	1241
##agger	1242
123	1243
immature	1244
connect	1245
meant	1246
ya	1247
games	1248
hong	1249
witch	1250
planner	1251
urge	1252
appealing	1253
seeks	1254
clone	1255
laughing	1256
assemble	1257
gate	1258
assassination	1259
legion	1260
australia	1261
##ssing	1262
perfection	1263
mutual	1264
compelled	1265
mexico	1266
something	1267
sister	1268
##ered	1269
coaster	1270
property	1271
couch	1272
attached	1273
considering	1274
parents	1275
argue	1276
thoughtful	1277
berlin	1278
racism	1279
impoverished	1280
occupational	1281
volunteered	1282
pupils	1283
apr	1284
##met	1285
dan	1286
peanuts	1287
bald	1288
jobs	1289
rumored	1290
45th	1291
packing	1292
hermitage	1293
gardens	1294
owe	1295
celebrate	1296
pockets	1297
disgrace	1298
halves	1299
forbade	1300
exactly	1301
overnight	1302
husbands	1303
secretly	1304
##uded	1305
prohibited	1306
16th	1307
assignment	1308
suspected	1309
##lk	1310
processor	1311
scares	1312
frozen	1313
cancer	1314
jimmy	1315
saddle	1316
convict	1317
clap	1318
devastated	1319
buying	1320
side	1321
famously	1322
##cos	1323
lin	1324
seattle	1325
fray	1326
manufacture	1327
patron	1328
tough	1329
notre	1330
##tails	1331
dam	1332
resist	1333
union	1334
##ps	1335
rapidly	1336
dad	1337
##uing	1338
##point	1339
prominent	1340
loose	1341
sitting	1342
construction	1343
improving	1344
malls	1345
panama	1346
escape	1347
employs	1348
feathers	1349
japan	1350
##balls	1351
expense	1352
useless	1353
eagerly	1354
anything	1355
##ore	1356
lev	1357
smack	1358
1914	1359
exceeds	1360
fuse	1361
documentary	1362
dread	1363
useful	1364
pop	1365
advertised	1366
off	1367
downloaded	1368
crude	1369
quotes	1370
paintings	1371
chess	1372
undermine	1373
presently	1374
fly	1375
sue	1376
carries	1377
seductive	1378
awake	1379
consequence	1380
contacts	1381
##unced	1382
quarrel	1383
swiped	1384
simpler	1385
comprehension	1386
picking	1387
defend	1388
least	1389
##ise	1390
planning	1391
##nk	1392
devoid	1393
bolt	1394
tapping	1395
crossing	1396
such	1397
##unce	1398
means	1399
scoffed	1400
witchcraft	1401
limousine	1402
##ique	1403
##ex	1404
admire	1405
teenagers	1406
scots	1407
4th	1408
##gina	1409
o	1410
uncertainty	1411
consultant	1412
troubles	1413
bulgarian	1414
lions	1415
prose	1416
kicked	1417
testified	1418
obtained	1419
devi	1420
##proof	1421
watch	1422
affirmed	1423
texas	1424
boiled	1425
charging	1426
##ulous	1427
marijuana	1428
listening	1429
involves	1430
overly	1431
ah	1432
##ddled	1433
payment	1434
subtle	1435
decorate	1436
dust	1437
auditorium	1438
blocked	1439
##mus	1440
##ressed	1441
asylum	1442
glue	1443
triangle	1444
job	1445
turned	1446
##arm	1447
3	1448
pace	1449
exasperated	1450
salad	1451
target	1452
fame	1453
microscope	1454
confronted	1455
probable	1456
syrup	1457
suspects	1458
evenings	1459
rents	1460
begin	1461
warmed	1462
founded	1463
dealings	1464
##he	1465
curt	1466
magical	1467
97	1468
allegations	1469
##pot	1470
garbage	1471
imprisoned	1472
audrey	1473
deadly	1474
precious	1475
1689	1476
beethoven	1477
shuffle	1478
respects	1479
lane	1480
succeed	1481
insulted	1482
authentic	1483
ingredient	1484
infant	1485
nut	1486
##ugh	1487
too	1488
concentrated	1489
##om	1490
genetic	1491
chased	1492
##tyle	1493
##fighting	1494
judges	1495
frankly	1496
250	1497
birch	1498
grape	1499
equipped	1500
##aw	1501
opener	1502
meaningful	1503
stated	1504
camel	1505
transmission	1506
stool	1507
conventional	1508
prick	1509
##zier	1510
##fied	1511
policemen	1512
caused	1513
##ach	1514
volume	1515
insist	1516
towels	1517
led	1518
complex	1519
circus	1520
administration	1521
perfume	1522
tables	1523
##ped	1524
appeared	1525
jasmine	1526
from	1527
em	1528
ultimately	1529
donor	1530
compromise	1531
horribly	1532
collected	1533
##uma	1534
cabbage	1535
spy	1536
depression	1537
##bank	1538
deserves	1539
mountains	1540
bathroom	1541
poker	1542
delicate	1543
luggage	1544
guessing	1545
yells	1546
delayed	1547
indoors	1548
sk	1549
indonesian	1550
##ffe	1551
##erina	1552
mob	1553
bible	1554
##post	1555
empire	1556
reporters	1557
24	1558
showers	1559
##tel	1560
hunters	1561
##pen	1562
prairie	1563
##ug	1564
##tten	1565
passive	1566
potato	1567
pattern	1568
2006	1569
dew	1570
moss	1571
star	1572
##house	1573
forgotten	1574
wreckage	1575
dowry	1576
mice	1577
took	1578
languages	1579
float	1580
guide	1581
hounds	1582
##itis	1583
calmly	1584
devout	1585
filled	1586
getting	1587
polls	1588
minorities	1589
portuguese	1590
iced	1591
resentment	1592
biology	1593
media	1594
intrigued	1595
hinges	1596
##sed	1597
criticizing	1598
stinging	1599
extend	1600
flashing	1601
werewolves	1602
atomic	1603
correctly	1604
harshly	1605
satellite	1606
advised	1607
##oss	1608
display	1609
falls	1610
##oga	1611
gi	1612
groundbreaking	1613
##city	1614
kangaroo	1615
shops	1616
reminded	1617
reigned	1618
punched	1619
##nding	1620
delight	1621
peninsula	1622
blink	1623
barrier	1624
pubs	1625
##ara	1626
patting	1627
hair	1628
mysterious	1629
##fold	1630
threw	1631
concussion	1632
under	1633
strangely	1634
ferrari	1635
diamonds	1636
##ows	1637
phenomenon	1638
imagination	1639
comparison	1640
congressman	1641
described	1642
calculate	1643
elders	1644
puddle	1645
bright	1646
shack	1647
##4	1648
closing	1649
preach	1650
chains	1651
complaint	1652
inmates	1653
law	1654
hurriedly	1655
sensitive	1656
##pi	1657
int	1658
lamp	1659
covering	1660
bodyguard	1661
brigade	1662
##ee	1663
quickly	1664
mountain	1665
vodka	1666
cleaner	1667
conducts	1668
richer	1669
applause	1670
transparent	1671
##ioms	1672
crowd	1673
##oz	1674
improves	1675
attend	1676
gravel	1677
hockey	1678
plane	1679
reaches	1680
shanghai	1681
spreads	1682
server	1683
past	1684
ridden	1685
packaging	1686
program	1687
##est	1688
gamble	1689
holes	1690
tents	1691
##du	1692
insulting	1693
saturated	1694
mimic	1695
##nis	1696
snap	1697
cheerfully	1698
generals	1699
1603	1700
socialist	1701
depressed	1702
sahara	1703
reverse	1704
alter	1705
##phobia	1706
##iable	1707
atm	1708
blast	1709
resting	1710
##smo	1711
odd	1712
radicals	1713
material	1714
secretive	1715
renovated	1716
afford	1717
emi	1718
manufactured	1719
pushing	1720
##boards	1721
boss	1722
yell	1723
##ament	1724
##lish	1725
cartridge	1726
##sp	1727
branches	1728
bond	1729
trade	1730
idol	1731
loaf	1732
1	1733
fake	1734
##berry	1735
sidewalks	1736
breaking	1737
##era	1738
expectations	1739
five	1740
supply	1741
yeah	1742
sailing	1743
turning	1744
fortunately	1745
var	1746
automotive	1747
belongings	1748
crawling	1749
shrine	1750
pond	1751
tooth	1752
##athlon	1753
shelter	1754
##eak	1755
farm	1756
substitute	1757
one	1758
record	1759
machinery	1760
##oned	1761
cello	1762
sur	1763
fury	1764
near	1765
unable	1766
glow	1767
brought	1768
##economic	1769
stations	1770
##ype	1771
tray	1772
blessing	1773
arrange	1774
##mba	1775
morally	1776
##unt	1777
blamed	1778
toy	1779
attempts	1780
arose	1781
##cia	1782
romance	1783
##ne	1784
ambassador	1785
dublin	1786
capitals	1787
cabinet	1788
macintosh	1789
##com	1790
actress	1791
blinding	1792
##bby	1793
stepmother	1794
risk	1795
##eo	1796
##trum	1797
tired	1798
opponent	1799
eliminate	1800
bitterness	1801
thinner	1802
##rag	1803
blossom	1804
risen	1805
mosquito	1806
attach	1807
says	1808
applicant	1809
##books	1810
besieged	1811
scotland	1812
across	1813
##ras	1814
marriages	1815
talent	1816
regarding	1817
pac	1818
studied	1819
belle	1820
moore	1821
cherry	1822
medieval	1823
passionate	1824
bourbon	1825
##as	1826
translations	1827
france	1828
forever	1829
##mple	1830
installation	1831
abe	1832
jew	1833
fl	1834
delivery	1835
##boot	1836
district	1837
reasonably	1838
prints	1839
friend	1840
dimensions	1841
resorts	1842
boxer	1843
danced	1844
regularly	1845
##ryl	1846
technical	1847
##athic	1848
pottery	1849
dusk	1850
clever	1851
vaguely	1852
constructing	1853
##oue	1854
id	1855
bal	1856
fashionable	1857
illness	1858
previously	1859
gods	1860
bulk	1861
okinawa	1862
yield	1863
shiny	1864
woken	1865
touch	1866
horizons	1867
##ended	1868
##ecure	1869
##ted	1870
forearm	1871
##ko	1872
##mming	1873
##pel	1874
questions	1875
shadows	1876
wright	1877
clothed	1878
customs	1879
specimen	1880
item	1881
##rous	1882
hasty	1883
militia	1884
attributes	1885
violence	1886
kitchen	1887
theft	1888
squad	1889
everyday	1890
icy	1891
operation	1892
tome	1893
circulation	1894
woman	1895
destination	1896
poses	1897
users	1898
election	1899
dinosaur	1900
horizon	1901
bananas	1902
exiled	1903
bone	1904
reader	1905
ta	1906
fathers	1907
log	1908
fright	1909
raw	1910
##hem	1911
oh	1912
trousers	1913
batteries	1914
4	1915
acknowledged	1916
prosecution	1917
shape	1918
320	1919
fertile	1920
##uri	1921
relies	1922
shrines	1923
lump	1924
newest	1925
pi	1926
finds	1927
worn	1928
lots	1929
whistle	1930
seventy	1931
155	1932
distinguish	1933
intentional	1934
funding	1935
sensation	1936
alphabet	1937
que	1938
oct	1939
murderer	1940
zebra	1941
chiefs	1942
colonel	1943
gladly	1944
themselves	1945
##ides	1946
centuries	1947
##ammed	1948
helping	1949
##eri	1950
liable	1951
guess	1952
65	1953
legally	1954
salsa	1955
contain	1956
soul	1957
rage	1958
helen	1959
talked	1960
cheerful	1961
countered	1962
cane	1963
optimism	1964
peter	1965
steep	1966
receptionist	1967
##zen	1968
credible	1969
washington	1970
policeman	1971
completed	1972
eventually	1973
comb	1974
vegetarian	1975
plural	1976
desires	1977
ax	1978
asleep	1979
cruelty	1980
##sb	1981
petty	1982
club	1983
annual	1984
k	1985
landing	1986
rushes	1987
homework	1988
calculation	1989
monster	1990
meter	1991
##pole	1992
##lash	1993
itunes	1994
##pressed	1995
proper	1996
butcher	1997
bite	1998
taxes	1999
##rained	2000
arrows	2001
touched	2002
consider	2003
daylight	2004
film	2005
works	2006
comic	2007
aggressive	2008
lieutenant	2009
characters	2010
victory	2011
##ation	2012
shirt	2013
illusion	2014
slightest	2015
atoms	2016
prices	2017
topping	2018
enemies	2019
employers	2020
smell	2021
empowered	2022
##ja	2023
willingly	2024
flown	2025
##hip	2026
motors	2027
sufficient	2028
niger	2029
emotional	2030
contra	2031
educate	2032
locus	2033
e	2034
brick	2035
upper	2036
hilarious	2037
goodbye	2038
hip	2039
lies	2040
pierced	2041
wooden	2042
exposing	2043
flood	2044
##woman	2045
##gal	2046
survivor	2047
winners	2048
pudding	2049
differed	2050
stuffed	2051
voices	2052
##gent	2053
leeds	2054
doesn	2055
borrowed	2056
complaining	2057
improvement	2058
most	2059
fist	2060
##osing	2061
seek	2062
camped	2063
repair	2064
port	2065
wrestling	2066
spins	2067
eagle	2068
##of	2069
allowance	2070
##ro	2071
professors	2072
junk	2073
pair	2074
disclose	2075
hepburn	2076
castro	2077
##ele	2078
cables	2079
ordered	2080
intentionally	2081
uncles	2082
darker	2083
arithmetic	2084
inca	2085
glaciers	2086
foxes	2087
##rim	2088
area	2089
gather	2090
ponds	2091
brewing	2092
spots	2093
surviving	2094
inhabitants	2095
cramped	2096
discount	2097
invitations	2098
loss	2099
arrow	2100
rwanda	2101
poor	2102
evidently	2103
repairing	2104
insanity	2105
##iring	2106
at	2107
legged	2108
##urable	2109
softly	2110
dense	2111
ambition	2112
accuracy	2113
2020	2114
reached	2115
confined	2116
punch	2117
loved	2118
understood	2119
indian	2120
procedures	2121
dip	2122
its	2123
fitness	2124
invented	2125
supervisor	2126
turks	2127
##dal	2128
119	2129
mcdonald	2130
compositions	2131
various	2132
##gee	2133
##ce	2134
concentrating	2135
exist	2136
##ject	2137
##oc	2138
hiding	2139
tricked	2140
medication	2141
##keeper	2142
comparing	2143
raf	2144
outs	2145
cho	2146
maintained	2147
widow	2148
epidemic	2149
echoed	2150
continually	2151
donors	2152
government	2153
attorney	2154
websites	2155
destined	2156
cross	2157
judgment	2158
hemisphere	2159
skilled	2160
attacker	2161
karate	2162
stock	2163
actually	2164
lot	2165
sc	2166
inexpensive	2167
permanent	2168
butt	2169
nara	2170
kennedy	2171
activists	2172
loses	2173
nevertheless	2174
opportunity	2175
vacant	2176
institutions	2177
yards	2178
coal	2179
pleasant	2180
chips	2181
infected	2182
##laze	2183
shouted	2184
##oping	2185
smoky	2186
doctor	2187
surrounding	2188
electronics	2189
existing	2190
readily	2191
picked	2192
dancer	2193
tops	2194
unemployment	2195
ecosystems	2196
toyota	2197
expressing	2198
##k	2199
walking	2200
formula	2201
january	2202
##lf	2203
##ciful	2204
viruses	2205
aimed	2206
remove	2207
saber	2208
rooted	2209
famine	2210
steadily	2211
among	2212
risked	2213
picnic	2214
##ji	2215
cd	2216
finished	2217
overwhelmed	2218
bothered	2219
notified	2220
violent	2221
reference	2222
elevators	2223
windows	2224
29	2225
soup	2226
excelled	2227
##cr	2228
##cchi	2229
closed	2230
intimidated	2231
programming	2232
finnish	2233
seminar	2234
busy	2235
##ing	2236
luckily	2237
##alis	2238
board	2239
1933	2240
kills	2241
closely	2242
birmingham	2243
##ai	2244
##un	2245
disadvantage	2246
advances	2247
close	2248
handcuffs	2249
vocational	2250
pony	2251
frown	2252
upright	2253
appearances	2254
swiss	2255
mons	2256
doubled	2257
paddle	2258
occurred	2259
flame	2260
academic	2261
##ama	2262
kids	2263
drinks	2264
straightforward	2265
hunt	2266
owners	2267
dorchester	2268
substantial	2269
recalling	2270
afterward	2271
die	2272
insect	2273
marginal	2274
hooker	2275
##nh	2276
commodity	2277
broadway	2278
inspired	2279
cry	2280
twist	2281
##bey	2282
train	2283
ducks	2284
colder	2285
kan	2286
stops	2287
cocaine	2288
##gli	2289
drop	2290
clean	2291
ghosts	2292
fully	2293
clue	2294
tailor	2295
senior	2296
2007	2297
pianist	2298
bounced	2299
##fish	2300
##gur	2301
urging	2302
literary	2303
resolved	2304
frustration	2305
balanced	2306
lovers	2307
fabulous	2308
built	2309
yacht	2310
irrational	2311
spot	2312
faults	2313
ham	2314
bursting	2315
captain	2316
blush	2317
finalized	2318
sewer	2319
##bic	2320
extravagant	2321
wasting	2322
restored	2323
outlawed	2324
designer	2325
hello	2326
stores	2327
chilly	2328
separated	2329
wildly	2330
signed	2331
skate	2332
gradually	2333
argentina	2334
fishing	2335
##ian	2336
fitzgerald	2337
stronger	2338
racist	2339
crunch	2340
usually	2341
sale	2342
spirits	2343
conditions	2344
developments	2345
##cat	2346
unbelievable	2347
blew	2348
##ran	2349
freed	2350
##ost	2351
a	2352
lac	2353
nails	2354
purse	2355
##less	2356
helpful	2357
vietnam	2358
adverse	2359
rice	2360
##on	2361
spending	2362
shadow	2363
treatment	2364
asia	2365
lied	2366
##ency	2367
anarchy	2368
lithuania	2369
plastic	2370
measures	2371
charles	2372
studies	2373
terrorist	2374
hilltop	2375
##loh	2376
slower	2377
sociological	2378
zu	2379
gives	2380
classes	2381
##tub	2382
vlad	2383
diabetes	2384
cremated	2385
madly	2386
executive	2387
pilot	2388
demoted	2389
sticking	2390
drives	2391
announced	2392
imagined	2393
manpower	2394
conserve	2395
removed	2396
then	2397
locks	2398
karim	2399
backstroke	2400
tin	2401
loaded	2402
harmless	2403
user	2404
championship	2405
release	2406
practiced	2407
reasoning	2408
##ater	2409
repeatedly	2410
sincerity	2411
kindergarten	2412
##ently	2413
hillside	2414
forum	2415
exam	2416
imported	2417
work	2418
sad	2419
returns	2420
loves	2421
necks	2422
peck	2423
universe	2424
hide	2425
grade	2426
images	2427
contend	2428
full	2429
south	2430
boil	2431
conviction	2432
##truct	2433
suburbs	2434
manga	2435
##dic	2436
tempting	2437
depending	2438
wrath	2439
wholly	2440
route	2441
commended	2442
taxpayers	2443
##gam	2444
##age	2445
##jong	2446
monopoly	2447
moderately	2448
pills	2449
unto	2450
rush	2451
society	2452
##pop	2453
bronze	2454
lesson	2455
kamal	2456
wages	2457
unit	2458
elizabeth	2459
apple	2460
rhyme	2461
;	2462
amazingly	2463
rings	2464
york	2465
nec	2466
2012	2467
##ana	2468
cats	2469
case	2470
education	2471
quoted	2472
students	2473
banished	2474
carp	2475
gymnastics	2476
surf	2477
mag	2478
vitamin	2479
childbirth	2480
congressional	2481
bottles	2482
thing	2483
minds	2484
reward	2485
attends	2486
specialists	2487
rifle	2488
##ught	2489
rolling	2490
ashore	2491
abuse	2492
compiled	2493
alike	2494
mischief	2495
mist	2496
##que	2497
vengeance	2498
danger	2499
camps	2500
staying	2501
coaches	2502
##nob	2503
##ivated	2504
bypass	2505
##ided	2506
attack	2507
learns	2508
tips	2509
##ir	2510
##oon	2511
foul	2512
destiny	2513
mere	2514
nu	2515
they	2516
##gy	2517
##eria	2518
eye	2519
originated	2520
##tral	2521
discarded	2522
index	2523
laying	2524
movie	2525
airlines	2526
##ration	2527
##ably	2528
succeeded	2529
monroe	2530
sweden	2531
shaved	2532
announcement	2533
advises	2534
louvre	2535
misconduct	2536
innovation	2537
allows	2538
males	2539
##ily	2540
throbbing	2541
meaning	2542
creep	2543
nephew	2544
candidate	2545
##nea	2546
fiance	2547
remainder	2548
economically	2549
supports	2550
alligator	2551
shoulders	2552
##dice	2553
##able	2554
inherently	2555
banks	2556
conference	2557
thief	2558
affair	2559
buyer	2560
relief	2561
mandela	2562
supporting	2563
loudly	2564
agreed	2565
toronto	2566
coca	2567
checking	2568
microphone	2569
nobel	2570
scene	2571
saints	2572
##chemist	2573
reflected	2574
1941	2575
fast	2576
folding	2577
canned	2578
era	2579
pr	2580
surprised	2581
agreeing	2582
canadians	2583
unreasonable	2584
twins	2585
##gre	2586
appoint	2587
willingness	2588
##way	2589
choices	2590
00	2591
acquaintances	2592
##rily	2593
##sr	2594
absolutely	2595
po	2596
discuss	2597
ceremonies	2598
propose	2599
greek	2600
##tan	2601
clover	2602
psychology	2603
##ters	2604
with	2605
swelling	2606
bargain	2607
monthly	2608
tangled	2609
thread	2610
##ph	2611
daytime	2612
mud	2613
copper	2614
workout	2615
classmate	2616
noon	2617
slain	2618
pain	2619
u	2620
elusive	2621
develop	2622
darkness	2623
tendency	2624
va	2625
for	2626
tubes	2627
##yse	2628
flea	2629
baking	2630
##ease	2631
ball	2632
fail	2633
swearing	2634
surroundings	2635
twisting	2636
grinned	2637
elaborate	2638
exploded	2639
torment	2640
indigenous	2641
hey	2642
wasted	2643
invincible	2644
laboratory	2645
packets	2646
grace	2647
independent	2648
increased	2649
mas	2650
signature	2651
beijing	2652
##ff	2653
rebirth	2654
deals	2655
caribbean	2656
fender	2657
cat	2658
chances	2659
pipe	2660
pig	2661
produces	2662
thrown	2663
##f	2664
bites	2665
superintendent	2666
artist	2667
weed	2668
##aru	2669
objections	2670
upcoming	2671
mistakes	2672
intersect	2673
dug	2674
aus	2675
madman	2676
monkey	2677
per	2678
distressed	2679
tributaries	2680
simply	2681
evening	2682
1940	2683
dull	2684
possibility	2685
heard	2686
cause	2687
competent	2688
improvised	2689
basically	2690
diversified	2691
floated	2692
equipment	2693
must	2694
extended	2695
##time	2696
supervised	2697
reflecting	2698
arizona	2699
##lit	2700
postponed	2701
eyebrow	2702
action	2703
##ika	2704
kong	2705
sha	2706
1957	2707
discreet	2708
resumed	2709
smiling	2710
shuddered	2711
production	2712
children	2713
##nical	2714
guitars	2715
calvin	2716
casual	2717
sick	2718
sportsman	2719
##wn	2720
cardboard	2721
donate	2722
yeast	2723
silk	2724
##sl	2725
dipping	2726
devoted	2727
aside	2728
piles	2729
constitutional	2730
employed	2731
boarded	2732
win	2733
air	2734
##hearted	2735
equator	2736
label	2737
crane	2738
pleasantly	2739
residents	2740
rose	2741
ge	2742
##alo	2743
youngest	2744
jaw	2745
non	2746
##dun	2747
##pped	2748
landslide	2749
dreamer	2750
##ris	2751
beamed	2752
just	2753
develops	2754
lime	2755
cast	2756
ranges	2757
achieving	2758
waiting	2759
encouraged	2760
fling	2761
question	2762
somebody	2763
registering	2764
habits	2765
disappear	2766
shield	2767
wrapped	2768
ac	2769
liter	2770
chaotic	2771
taxpayer	2772
waits	2773
latitude	2774
journeys	2775
glancing	2776
operate	2777
fen	2778
##ser	2779
56	2780
twin	2781
gown	2782
beneficial	2783
inviting	2784
life	2785
rural	2786
begging	2787
grasp	2788
fix	2789
l	2790
boarding	2791
promoted	2792
biodiversity	2793
##ent	2794
rockets	2795
undergo	2796
pressing	2797
catching	2798
blame	2799
sincere	2800
stairwell	2801
feelings	2802
floor	2803
lap	2804
immortality	2805
museum	2806
beans	2807
##iga	2808
officer	2809
carpet	2810
teens	2811
flowers	2812
##rret	2813
purchases	2814
fit	2815
40th	2816
lit	2817
##tered	2818
lagoon	2819
peak	2820
##eda	2821
fill	2822
perfect	2823
evolved	2824
attention	2825
##ding	2826
buffalo	2827
##uating	2828
bath	2829
contract	2830
anniversary	2831
romanian	2832
estimate	2833
##flies	2834
occasionally	2835
consist	2836
network	2837
excavation	2838
joints	2839
##ology	2840
7th	2841
bunch	2842
turn	2843
op	2844
am	2845
compensated	2846
##se	2847
##ld	2848
cups	2849
our	2850
tunnel	2851
##buck	2852
proud	2853
31st	2854
emerging	2855
giants	2856
hearted	2857
amazed	2858
modifications	2859
greece	2860
choosing	2861
reviewing	2862
cassette	2863
shipping	2864
playoffs	2865
##aca	2866
phase	2867
views	2868
cave	2869
##oys	2870
##ind	2871
##aries	2872
faint	2873
charge	2874
typical	2875
responded	2876
##rist	2877
except	2878
flirt	2879
orleans	2880
abortion	2881
emergency	2882
blaming	2883
needing	2884
wandering	2885
1876	2886
brussels	2887
##hear	2888
is	2889
patriot	2890
ecological	2891
replacement	2892
send	2893
##dicate	2894
barber	2895
sculpture	2896
absence	2897
crank	2898
briefly	2899
unused	2900
##zed	2901
emphasis	2902
ken	2903
toast	2904
##ional	2905
mp3	2906
live	2907
glanced	2908
disqualified	2909
amused	2910
altogether	2911
bloom	2912
exit	2913
refreshing	2914
##owa	2915
demonstration	2916
correct	2917
discourage	2918
positive	2919
##iji	2920
achievements	2921
noodles	2922
faded	2923
tuberculosis	2924
brains	2925
hotel	2926
expressed	2927
profits	2928
rehearsals	2929
so	2930
##ru	2931
decade	2932
##pire	2933
leaps	2934
relevance	2935
cook	2936
dentist	2937
##sor	2938
shouldn	2939
count	2940
stabilized	2941
extent	2942
nick	2943
pictures	2944
unusually	2945
vacation	2946
snails	2947
pulling	2948
ice	2949
##ia	2950
suitcase	2951
rub	2952
natural	2953
van	2954
dil	2955
arguably	2956
detective	2957
brand	2958
beforehand	2959
finding	2960
##ocating	2961
glowing	2962
rat	2963
beck	2964
incredibly	2965
story	2966
ek	2967
##can	2968
terror	2969
isolated	2970
wishing	2971
hears	2972
struggles	2973
##rky	2974
filling	2975
cass	2976
reportedly	2977
window	2978
capital	2979
saxophone	2980
unfolded	2981
##pressing	2982
when	2983
163	2984
2013	2985
##ku	2986
american	2987
kind	2988
put	2989
##ide	2990
##ounded	2991
september	2992
stir	2993
apes	2994
br	2995
provided	2996
kiss	2997
currency	2998
three	2999
climates	3000
creatures	3001
rejection	3002
technology	3003
shouting	3004
bombed	3005
anger	3006
mythology	3007
##cu	3008
file	3009
chill	3010
ceased	3011
hurry	3012
neighbors	3013
calls	3014
solomon	3015
##inal	3016
lawyers	3017
ridiculous	3018
disagreed	3019
photographs	3020
accelerate	3021
container	3022
finishing	3023
traded	3024
distraction	3025
##icate	3026
##erty	3027
measuring	3028
bowing	3029
ideas	3030
promotion	3031
sunday	3032
##hole	3033
feeds	3034
stalled	3035
corrected	3036
concentrate	3037
doctors	3038
participate	3039
records	3040
beverage	3041
stocks	3042
unfamiliar	3043
was	3044
pickup	3045
angeles	3046
impression	3047
slope	3048
##tag	3049
retreat	3050
socks	3051
cairo	3052
##tu	3053
dictator	3054
objective	3055
gorge	3056
hadn	3057
typing	3058
races	3059
shy	3060
better	3061
tools	3062
shuttle	3063
shiver	3064
1950s	3065
forgot	3066
easy	3067
worries	3068
##ited	3069
bravery	3070
brazilian	3071
responsibilities	3072
depended	3073
autobiography	3074
wa	3075
remorse	3076
pat	3077
##fly	3078
sub	3079
se	3080
golfer	3081
breeds	3082
use	3083
flavor	3084
##ken	3085
dress	3086
crazy	3087
anybody	3088
carried	3089
##af	3090
kingdom	3091
##tist	3092
scattered	3093
destroying	3094
##dae	3095
landscape	3096
attraction	3097
gain	3098
contribution	3099
calm	3100
twitch	3101
229	3102
stitches	3103
jumped	3104
lock	3105
spoiled	3106
sung	3107
##gible	3108
##es	3109
alarmed	3110
interesting	3111
##ity	3112
approaches	3113
reacting	3114
thick	3115
##win	3116
heir	3117
ja	3118
resignation	3119
torn	3120
winning	3121
shipment	3122
confirm	3123
marble	3124
definite	3125
outnumbered	3126
##sum	3127
belongs	3128
idiot	3129
blows	3130
hometown	3131
grandson	3132
blowing	3133
courtyard	3134
##lee	3135
historians	3136
##iza	3137
##xi	3138
substituted	3139
alternatives	3140
kim	3141
specific	3142
door	3143
tribes	3144
dual	3145
reptiles	3146
blind	3147
pack	3148
##nce	3149
rational	3150
dusty	3151
actresses	3152
pitchfork	3153
city	3154
truck	3155
part	3156
contemporary	3157
came	3158
forensic	3159
sobbing	3160
eclipse	3161
traits	3162
advisor	3163
shrugged	3164
targeting	3165
##qui	3166
multiple	3167
heroes	3168
boards	3169
cougars	3170
shout	3171
doorway	3172
sho	3173
diplomacy	3174
north	3175
€	3176
tomb	3177
shoreline	3178
##tes	3179
czech	3180
##rize	3181
fellow	3182
ninth	3183
yelled	3184
stick	3185
robbed	3186
accountable	3187
albert	3188
brushed	3189
objected	3190
specialized	3191
##centric	3192
place	3193
dragons	3194
responsibility	3195
newly	3196
##ncy	3197
shrieked	3198
interrupted	3199
slip	3200
seem	3201
apollo	3202
regained	3203
crashed	3204
##zie	3205
familiar	3206
phd	3207
sewing	3208
night	3209
##ify	3210
##dded	3211
roller	3212
serious	3213
88	3214
liquids	3215
quarters	3216
hers	3217
asked	3218
cannot	3219
crawl	3220
authority	3221
mixed	3222
223	3223
diploma	3224
advice	3225
loneliness	3226
fiction	3227
1994	3228
outsider	3229
##uation	3230
leisure	3231
risky	3232
pillow	3233
resembles	3234
sterling	3235
employer	3236
crops	3237
windy	3238
##ometer	3239
begged	3240
gripped	3241
sworn	3242
expired	3243
tsunami	3244
him	3245
jury	3246
spontaneously	3247
appropriate	3248
understand	3249
##factory	3250
bus	3251
struggled	3252
player	3253
knew	3254
nobody	3255
forgive	3256
leadership	3257
fifty	3258
fuel	3259
##ali	3260
staple	3261
seed	3262
sucks	3263
maya	3264
customer	3265
ambush	3266
pages	3267
heroine	3268
##ma	3269
##ine	3270
are	3271
mouse	3272
##ima	3273
passengers	3274
##amina	3275
african	3276
##bbies	3277
##dog	3278
conflict	3279
attended	3280
hugged	3281
rank	3282
dirty	3283
thanksgiving	3284
ella	3285
refusing	3286
morning	3287
highway	3288
similarities	3289
liberty	3290
melted	3291
contracts	3292
bend	3293
furious	3294
viewed	3295
##sher	3296
track	3297
whitman	3298
graham	3299
seller	3300
synonym	3301
residue	3302
actors	3303
spur	3304
honorable	3305
endless	3306
pathetic	3307
fur	3308
floating	3309
ark	3310
##oso	3311
pasta	3312
convention	3313
disaster	3314
nation	3315
enigma	3316
line	3317
peppers	3318
downtown	3319
##real	3320
renewed	3321
hug	3322
trickle	3323
nature	3324
alone	3325
eliminating	3326
holland	3327
crimes	3328
palm	3329
##liness	3330
:	3331
pollen	3332
rewarded	3333
variables	3334
##ddle	3335
joking	3336
gray	3337
##rade	3338
painful	3339
tightly	3340
shu	3341
##int	3342
##le	3343
137	3344
weddings	3345
elementary	3346
torpedo	3347
helpless	3348
thanked	3349
unlikely	3350
shore	3351
equally	3352
stable	3353
timed	3354
unconscious	3355
cynical	3356
##ther	3357
bridge	3358
japanese	3359
hits	3360
remarried	3361
within	3362
patrick	3363
noises	3364
ike	3365
believes	3366
chimney	3367
kara	3368
sailed	3369
minute	3370
delegates	3371
choke	3372
made	3373
rule	3374
apt	3375
5th	3376
wink	3377
typhoon	3378
##port	3379
scars	3380
tanned	3381
certainly	3382
oak	3383
tortured	3384
##rr	3385
sold	3386
february	3387
oboe	3388
pastor	3389
carry	3390
days	3391
blinked	3392
undefeated	3393
young	3394
price	3395
blog	3396
acre	3397
terri	3398
newborn	3399
pursuit	3400
buses	3401
nuts	3402
deep	3403
welcomed	3404
load	3405
snakes	3406
ditch	3407
bare	3408
myself	3409
cork	3410
##pas	3411
coughed	3412
overtook	3413
icon	3414
refer	3415
batting	3416
exhibition	3417
comparable	3418
lying	3419
winked	3420
25	3421
snuck	3422
resigned	3423
shine	3424
advisers	3425
may	3426
odds	3427
fines	3428
provides	3429
loyal	3430
adopting	3431
vacuum	3432
scorpion	3433
checks	3434
##pre	3435
prove	3436
points	3437
expensive	3438
deputy	3439
excitement	3440
prefer	3441
##1	3442
restroom	3443
##ble	3444
##ashi	3445
crawled	3446
eng	3447
mari	3448
trivial	3449
byron	3450
##gle	3451
bandage	3452
liar	3453
##ath	3454
mans	3455
asthma	3456
general	3457
info	3458
mesopotamia	3459
australian	3460
ship	3461
antiques	3462
musical	3463
delicious	3464
##war	3465
dial	3466
knowing	3467
aunt	3468
seemed	3469
lawsuit	3470
little	3471
##oped	3472
publishing	3473
t	3474
esteem	3475
prolonged	3476
ethnic	3477
osaka	3478
bog	3479
##iol	3480
petition	3481
radar	3482
pale	3483
nowadays	3484
domestically	3485
inform	3486
knee	3487
tone	3488
horseback	3489
rain	3490
below	3491
expands	3492
lie	3493
##bi	3494
euro	3495
scalp	3496
##fu	3497
industry	3498
management	3499
##inge	3500
planet	3501
drown	3502
basics	3503
deer	3504
##shi	3505
babe	3506
solar	3507
challenge	3508
telephone	3509
steel	3510
outraged	3511
porcelain	3512
##ky	3513
##stand	3514
short	3515
reckless	3516
brief	3517
immediate	3518
honesty	3519
equals	3520
accumulated	3521
however	3522
tens	3523
emphasize	3524
turkey	3525
continent	3526
damaged	3527
unstable	3528
admiral	3529
##rel	3530
assassin	3531
completely	3532
morocco	3533
assistant	3534
lunch	3535
goals	3536
dwelling	3537
exploit	3538
injection	3539
##by	3540
hybrid	3541
nfl	3542
britain	3543
minded	3544
##ruck	3545
cell	3546
protecting	3547
##ey	3548
digital	3549
lengthy	3550
amounts	3551
unison	3552
appearing	3553
applications	3554
rig	3555
pleading	3556
critic	3557
shaping	3558
metals	3559
tennis	3560
eighth	3561
intentions	3562
beard	3563
absent	3564
ran	3565
knocks	3566
coarse	3567
mansion	3568
critical	3569
stopping	3570
heating	3571
butterfly	3572
pest	3573
pierre	3574
belts	3575
tongue	3576
poisoned	3577
##ati	3578
behalf	3579
belt	3580
startling	3581
grew	3582
principle	3583
girlfriends	3584
1954	3585
sleepy	3586
greater	3587
music	3588
whatever	3589
vowels	3590
laid	3591
sip	3592
student	3593
passports	3594
fearless	3595
wet	3596
resisted	3597
##nant	3598
zip	3599
death	3600
bowling	3601
utmost	3602
dubious	3603
##gly	3604
addition	3605
orphan	3606
producing	3607
indifference	3608
nearest	3609
cooperative	3610
##rg	3611
had	3612
therapy	3613
resigning	3614
arrive	3615
blunt	3616
press	3617
screamed	3618
sat	3619
acknowledges	3620
##dad	3621
firm	3622
dialect	3623
rocket	3624
un	3625
plagued	3626
ting	3627
reformed	3628
##etic	3629
map	3630
collar	3631
horizontal	3632
ambulance	3633
##birds	3634
different	3635
headache	3636
scripts	3637
balloon	3638
##ulsive	3639
flag	3640
climate	3641
intimidating	3642
refuse	3643
promoting	3644
wi	3645
accident	3646
usa	3647
##via	3648
yesterday	3649
civilian	3650
trucks	3651
##phones	3652
bas	3653
pier	3654
lungs	3655
partners	3656
##llar	3657
corporal	3658
procedure	3659
slaves	3660
slide	3661
sports	3662
teenage	3663
perished	3664
diaries	3665
chinese	3666
averaged	3667
allied	3668
expedition	3669
ballistic	3670
23rd	3671
cool	3672
soaked	3673
healthcare	3674
habit	3675
us	3676
iphone	3677
translator	3678
directly	3679
create	3680
smallest	3681
sponge	3682
##oa	3683
transform	3684
##tell	3685
fare	3686
constant	3687
bulbs	3688
tonight	3689
sis	3690
breath	3691
weeds	3692
stove	3693
effort	3694
banana	3695
1928	3696
##azi	3697
dolls	3698
visitor	3699
karma	3700
culminated	3701
emigrated	3702
ignorance	3703
tee	3704
mile	3705
##lined	3706
learn	3707
physically	3708
maid	3709
sacrifice	3710
reflect	3711
boundary	3712
##pe	3713
martial	3714
##dity	3715
realized	3716
##rization	3717
exact	3718
becomes	3719
holy	3720
150	3721
which	3722
preaching	3723
sweating	3724
viewpoint	3725
##oom	3726
furry	3727
distracted	3728
exits	3729
choose	3730
accidental	3731
geneva	3732
witnessed	3733
dna	3734
wisdom	3735
##overs	3736
##ea	3737
egyptians	3738
selling	3739
##girl	3740
campaign	3741
1945	3742
sport	3743
##os	3744
syntax	3745
given	3746
plainly	3747
seeing	3748
##del	3749
cosmetic	3750
bells	3751
##person	3752
fourth	3753
wore	3754
unsuccessful	3755
##cc	3756
##thi	3757
lone	3758
describe	3759
stripes	3760
dvd	3761
channel	3762
whole	3763
archaeology	3764
maria	3765
active	3766
frequently	3767
analog	3768
regretted	3769
emergencies	3770
rip	3771
dynamic	3772
frantic	3773
flora	3774
zones	3775
elect	3776
barely	3777
healthy	3778
##ond	3779
##man	3780
amnesty	3781
ties	3782
bruised	3783
neighbor	3784
##lea	3785
soap	3786
armstrong	3787
##eb	3788
guaranteed	3789
decided	3790
cloth	3791
hu	3792
euros	3793
##oured	3794
statesman	3795
chemistry	3796
seen	3797
mammal	3798
offer	3799
complications	3800
ic	3801
hind	3802
##sti	3803
plague	3804
girlfriend	3805
mind	3806
heart	3807
##ar	3808
recognized	3809
##fa	3810
behind	3811
earnest	3812
meantime	3813
moonlight	3814
rich	3815
countless	3816
fractured	3817
sheer	3818
towns	3819
lizard	3820
cleveland	3821
facebook	3822
dances	3823
hand	3824
psychic	3825
##oit	3826
touches	3827
lush	3828
##no	3829
fastened	3830
citizen	3831
##ll	3832
watches	3833
distribution	3834
chest	3835
drama	3836
regular	3837
reveal	3838
billion	3839
faithful	3840
careful	3841
winter	3842
extension	3843
bern	3844
1998	3845
desperate	3846
article	3847
##b	3848
neighborhood	3849
names	3850
##crow	3851
melt	3852
happily	3853
clip	3854
android	3855
parks	3856
##rew	3857
##feit	3858
6	3859
trunks	3860
##ries	3861
##rank	3862
decision	3863
neglect	3864
planting	3865
##ib	3866
##hon	3867
##nick	3868
picket	3869
altered	3870
harvard	3871
##ota	3872
mean	3873
##igen	3874
smashed	3875
gears	3876
freedom	3877
accurate	3878
freak	3879
wrap	3880
leader	3881
companies	3882
ivory	3883
dolphin	3884
opposite	3885
##ider	3886
committing	3887
programmer	3888
light	3889
##oint	3890
move	3891
range	3892
##lete	3893
disagree	3894
dr	3895
suppress	3896
arabs	3897
martian	3898
housing	3899
welcome	3900
remaining	3901
organization	3902
##orted	3903
skeleton	3904
varies	3905
green	3906
accuse	3907
contained	3908
give	3909
messy	3910
ale	3911
noticeable	3912
silently	3913
have	3914
delivered	3915
suspicious	3916
adult	3917
coherent	3918
care	3919
shivers	3920
evolve	3921
remembers	3922
gave	3923
broke	3924
colossal	3925
dec	3926
##verted	3927
##jured	3928
currently	3929
##ter	3930
punishment	3931
backed	3932
let	3933
observation	3934
checked	3935
independence	3936
breathing	3937
visiting	3938
feeding	3939
handicap	3940
##ities	3941
errors	3942
luke	3943
nodded	3944
carmel	3945
publicity	3946
##ppa	3947
foreigner	3948
benefit	3949
hoping	3950
teaches	3951
aiming	3952
managed	3953
##vo	3954
easiest	3955
drivers	3956
1927	3957
000	3958
environmental	3959
zoology	3960
departure	3961
insights	3962
shin	3963
##uate	3964
trumpet	3965
##lge	3966
barley	3967
glued	3968
cunning	3969
landlord	3970
renaissance	3971
obscure	3972
middle	3973
church	3974
pipes	3975
##liest	3976
infiltrate	3977
##stones	3978
worried	3979
widen	3980
##dia	3981
regulation	3982
angels	3983
##bis	3984
loans	3985
##rite	3986
preserve	3987
##idi	3988
fringe	3989
armies	3990
grill	3991
collateral	3992
slapped	3993
hypothesis	3994
signs	3995
recipe	3996
fr	3997
sixteen	3998
proven	3999
sa	4000
##tem	4001
##ographer	4002
away	4003
screw	4004
alice	4005
easing	4006
time	4007
chosen	4008
##go	4009
songs	4010
quality	4011
salary	4012
grams	4013
connected	4014
bids	4015
certain	4016
lighter	4017
teasing	4018
toward	4019
athlete	4020
stray	4021
speeding	4022
pools	4023
colombian	4024
runner	4025
broad	4026
straightened	4027
polish	4028
##lb	4029
evacuated	4030
wait	4031
buff	4032
letters	4033
partly	4034
accomplished	4035
turtles	4036
pretended	4037
trout	4038
##eli	4039
jealous	4040
bribe	4041
walls	4042
powers	4043
salon	4044
greene	4045
buds	4046
youtube	4047
cds	4048
lick	4049
algebra	4050
strung	4051
exchange	4052
remarks	4053
pleasures	4054
owing	4055
hopeless	4056
##eres	4057
annoying	4058
compatible	4059
##itt	4060
##ching	4061
straightening	4062
##in	4063
prevalent	4064
miller	4065
obligation	4066
canteen	4067
bro	4068
compound	4069
dangers	4070
ari	4071
imaginative	4072
##made	4073
weekdays	4074
grammatical	4075
athens	4076
table	4077
charged	4078
hundreds	4079
firmly	4080
##wood	4081
continues	4082
before	4083
house	4084
moan	4085
##vious	4086
grab	4087
seoul	4088
comfortable	4089
deliberately	4090
bottom	4091
wound	4092
mosque	4093
react	4094
neat	4095
proclamation	4096
painting	4097
##nor	4098
casualties	4099
whip	4100
dream	4101
wai	4102
reinforcements	4103
pocket	4104
delighted	4105
outrage	4106
##qua	4107
sparks	4108
meditation	4109
tea	4110
##lth	4111
fugitive	4112
switzerland	4113
pearls	4114
marilyn	4115
damages	4116
consequences	4117
innate	4118
syria	4119
insults	4120
shed	4121
wide	4122
suitable	4123
event	4124
2	4125
badly	4126
##hen	4127
poly	4128
cuff	4129
convince	4130
##like	4131
zambia	4132
restrictions	4133
pull	4134
weaknesses	4135
clarify	4136
deter	4137
were	4138
##inator	4139
roads	4140
riot	4141
prosperity	4142
missed	4143
dominated	4144
risks	4145
ho	4146
environment	4147
lo	4148
rag	4149
owes	4150
bulgaria	4151
reserve	4152
##ange	4153
harassment	4154
prey	4155
1820	4156
distress	4157
frenchman	4158
chance	4159
hitler	4160
founder	4161
drive	4162
chop	4163
opposed	4164
inconsistent	4165
pulled	4166
increases	4167
inter	4168
seafood	4169
butter	4170
##fast	4171
singled	4172
remembering	4173
hays	4174
.	4175
raising	4176
even	4177
engineers	4178
##low	4179
gentlemen	4180
compassionate	4181
spice	4182
##bone	4183
appropriated	4184
##ui	4185
held	4186
gazed	4187
ferris	4188
noted	4189
wonderland	4190
##vert	4191
scheme	4192
suit	4193
alcoholic	4194
according	4195
investigator	4196
greeting	4197
purple	4198
##ala	4199
hospital	4200
timer	4201
dia	4202
cigarette	4203
collect	4204
image	4205
austria	4206
hospitals	4207
teaser	4208
tres	4209
magnet	4210
sweeping	4211
classroom	4212
german	4213
evolution	4214
impose	4215
daisy	4216
empty	4217
##ag	4218
fled	4219
documents	4220
aspects	4221
relations	4222
##pa	4223
minsk	4224
major	4225
advocating	4226
##lm	4227
ipod	4228
stuff	4229
exciting	4230
tourist	4231
portable	4232
hot	4233
over	4234
ponder	4235
blushed	4236
##tters	4237
man	4238
##ono	4239
hostage	4240
black	4241
prophet	4242
arriving	4243
##j	4244
companion	4245
trusted	4246
##tale	4247
paperwork	4248
mornings	4249
challenged	4250
acknowledge	4251
proposition	4252
siblings	4253
?	4254
flights	4255
##ering	4256
instant	4257
priced	4258
aground	4259
logic	4260
##rup	4261
struck	4262
fingerprints	4263
##terol	4264
blossoms	4265
trial	4266
halloween	4267
doll	4268
hurled	4269
stationed	4270
adjust	4271
clarinet	4272
subway	4273
tech	4274
managing	4275
autumn	4276
items	4277
bitter	4278
mortgage	4279
hanging	4280
wearing	4281
shoes	4282
teaching	4283
heap	4284
inspiration	4285
reality	4286
hurricane	4287
dutch	4288
relics	4289
ballet	4290
##hend	4291
field	4292
kidding	4293
privacy	4294
printers	4295
r	4296
collects	4297
series	4298
robots	4299
cargo	4300
##tting	4301
created	4302
sued	4303
shopping	4304
theirs	4305
##holes	4306
##ked	4307
erupted	4308
feature	4309
doorstep	4310
mixing	4311
miss	4312
influence	4313
murdered	4314
ru	4315
shelf	4316
##turing	4317
mustache	4318
badge	4319
smile	4320
activated	4321
cocktail	4322
receiving	4323
elected	4324
granting	4325
necessity	4326
##rigues	4327
##kers	4328
curiously	4329
scratching	4330
scarce	4331
windshield	4332
wondering	4333
fixing	4334
web	4335
define	4336
daily	4337
##oot	4338
pens	4339
notion	4340
poison	4341
walker	4342
warsaw	4343
elastic	4344
bits	4345
white	4346
relieve	4347
1939	4348
railroad	4349
val	4350
magazines	4351
##ten	4352
drums	4353
mock	4354
##5	4355
groups	4356
structure	4357
permitted	4358
##iest	4359
decisions	4360
##ified	4361
jazz	4362
posthumously	4363
discussed	4364
drenched	4365
plenty	4366
filing	4367
##placed	4368
##tree	4369
diagnosed	4370
iraq	4371
respond	4372
territory	4373
mo	4374
every	4375
hose	4376
bed	4377
purposely	4378
corresponding	4379
nineteen	4380
whom	4381
hawks	4382
exile	4383
pad	4384
renewal	4385
sunglasses	4386
ga	4387
coins	4388
traveler	4389
nightfall	4390
russia	4391
hokkaido	4392
hardwood	4393
##color	4394
scare	4395
summit	4396
noticeably	4397
rattle	4398
flick	4399
replied	4400
drew	4401
##tly	4402
excuse	4403
accusation	4404
bender	4405
round	4406
allegedly	4407
penetrated	4408
want	4409
##tagram	4410
##2	4411
readers	4412
syllable	4413
##light	4414
musician	4415
owning	4416
composure	4417
1920s	4418
gesture	4419
##mers	4420
##ection	4421
treason	4422
squid	4423
lower	4424
te	4425
stark	4426
##mission	4427
mom	4428
unfortunate	4429
shake	4430
export	4431
deal	4432
causing	4433
beats	4434
##s	4435
guilty	4436
abuses	4437
##ed	4438
##mbit	4439
respectful	4440
implicated	4441
cousin	4442
late	4443
land	4444
injustice	4445
into	4446
##ame	4447
##te	4448
definitely	4449
crown	4450
gallo	4451
tow	4452
bust	4453
##tens	4454
textiles	4455
childish	4456
uncanny	4457
bubble	4458
disappearing	4459
stall	4460
buzz	4461
stored	4462
hurrying	4463
minor	4464
catholic	4465
soldier	4466
##ove	4467
caring	4468
preserved	4469
ozone	4470
coin	4471
tissue	4472
convey	4473
##vy	4474
result	4475
analyzing	4476
retail	4477
gains	4478
slim	4479
##bber	4480
stalls	4481
end	4482
elevator	4483
suggests	4484
##see	4485
virtue	4486
wrote	4487
pistol	4488
dilemma	4489
cheered	4490
wealth	4491
daughter	4492
trembled	4493
pear	4494
ending	4495
freelance	4496
slab	4497
mal	4498
condor	4499
##due	4500
experiencing	4501
boys	4502
voter	4503
milk	4504
all	4505
balcony	4506
swept	4507
korean	4508
##ive	4509
wanna	4510
croatia	4511
coyotes	4512
several	4513
statistics	4514
+	4515
episode	4516
##kit	4517
gas	4518
educational	4519
age	4520
chat	4521
brave	4522
deserted	4523
pawn	4524
stating	4525
fairy	4526
chocolate	4527
aids	4528
savings	4529
##ote	4530
22	4531
##apple	4532
yard	4533
fee	4534
dead	4535
sq	4536
600	4537
plump	4538
meters	4539
thirst	4540
lipstick	4541
##8	4542
grasped	4543
oral	4544
earthquakes	4545
rendered	4546
##cies	4547
denominations	4548
rats	4549
waving	4550
ugly	4551
manipulated	4552
rope	4553
frightening	4554
falsely	4555
strength	4556
geological	4557
everything	4558
watched	4559
roll	4560
##her	4561
stormed	4562
judgement	4563
rebels	4564
families	4565
propeller	4566
surgeon	4567
skirt	4568
sucked	4569
prayers	4570
churchill	4571
##lock	4572
downing	4573
##ished	4574
spring	4575
nightmares	4576
cents	4577
##el	4578
singers	4579
contestants	4580
12th	4581
1990s	4582
grandma	4583
abandoning	4584
##a	4585
##vier	4586
hitch	4587
dirt	4588
tram	4589
scale	4590
fountain	4591
conscious	4592
82	4593
es	4594
cuba	4595
birds	4596
breakdown	4597
discovered	4598
circles	4599
korea	4600
shallow	4601
tequila	4602
entirely	4603
pick	4604
distributed	4605
strongly	4606
sisters	4607
whose	4608
katrina	4609
coral	4610
insists	4611
##pers	4612
season	4613
sadly	4614
bacteria	4615
knitting	4616
beautiful	4617
pointed	4618
shortly	4619
confiscated	4620
circulating	4621
central	4622
reassured	4623
important	4624
loading	4625
##ied	4626
180	4627
papa	4628
fia	4629
accompanied	4630
yelling	4631
wild	4632
benefactor	4633
creepy	4634
tested	4635
save	4636
met	4637
spell	4638
##cting	4639
aspiring	4640
##rase	4641
exists	4642
bloody	4643
addressing	4644
greatest	4645
bay	4646
betray	4647
##ats	4648
shaggy	4649
minister	4650
cursed	4651
discouraged	4652
implements	4653
col	4654
##not	4655
abs	4656
dimension	4657
walt	4658
architect	4659
comedian	4660
emperor	4661
sided	4662
pagoda	4663
ronald	4664
##ess	4665
##ad	4666
hired	4667
##ss	4668
framed	4669
member	4670
produce	4671
simplicity	4672
##ference	4673
gold	4674
##itate	4675
blankets	4676
explosion	4677
joker	4678
##sen	4679
h	4680
cottages	4681
operates	4682
compare	4683
##titles	4684
##isi	4685
##bola	4686
goods	4687
spare	4688
conceal	4689
snack	4690
tal	4691
pot	4692
cu	4693
fantasy	4694
grown	4695
belgium	4696
##sc	4697
handles	4698
food	4699
displays	4700
filter	4701
copied	4702
##ceptive	4703
##va	4704
abruptly	4705
lamps	4706
shift	4707
driveway	4708
viva	4709
broker	4710
consumer	4711
committed	4712
desirable	4713
high	4714
##der	4715
roof	4716
narrow	4717
##uting	4718
tissues	4719
grocery	4720
##sume	4721
wartime	4722
energy	4723
long	4724
recurring	4725
morals	4726
awareness	4727
cushion	4728
pitched	4729
snapped	4730
verdict	4731
proposal	4732
##water	4733
##hea	4734
mine	4735
success	4736
skin	4737
products	4738
deaf	4739
based	4740
someday	4741
##ero	4742
porter	4743
roar	4744
repairs	4745
bee	4746
costume	4747
##hn	4748
correction	4749
reputed	4750
##atable	4751
escorted	4752
cubic	4753
insects	4754
collection	4755
globe	4756
universities	4757
masterpiece	4758
##da	4759
rifles	4760
sanctions	4761
hamlet	4762
strict	4763
1960	4764
sticky	4765
read	4766
makeup	4767
hammering	4768
discharged	4769
counter	4770
east	4771
com	4772
portugal	4773
bookstore	4774
##put	4775
recipes	4776
minutes	4777
snoop	4778
nos	4779
bankruptcy	4780
##aud	4781
entrusted	4782
broom	4783
act	4784
regard	4785
fox	4786
fewer	4787
schedule	4788
being	4789
sling	4790
sessions	4791
gorgeous	4792
lung	4793
dollars	4794
weird	4795
warming	4796
hairy	4797
answering	4798
transportation	4799
instantly	4800
cousins	4801
stil	4802
psychiatrist	4803
association	4804
howling	4805
productivity	4806
##ners	4807
rivers	4808
doo	4809
depicted	4810
semester	4811
twists	4812
erased	4813
hero	4814
scholar	4815
taught	4816
underneath	4817
spokesperson	4818
guidelines	4819
department	4820
assist	4821
##hak	4822
in	4823
misleading	4824
letter	4825
doing	4826
reno	4827
diamond	4828
constellation	4829
smartphone	4830
suck	4831
compete	4832
maintenance	4833
outlet	4834
##atter	4835
drove	4836
pamphlet	4837
exchanged	4838
halt	4839
drugs	4840
eats	4841
happening	4842
##i	4843
allergic	4844
combined	4845
##ups	4846
painter	4847
regulations	4848
refusal	4849
practical	4850
spike	4851
blasting	4852
highest	4853
licensed	4854
vote	4855
umbrella	4856
del	4857
##ti	4858
##umber	4859
fry	4860
directs	4861
snatched	4862
##nne	4863
keller	4864
try	4865
candy	4866
victorian	4867
buddy	4868
mrs	4869
trance	4870
known	4871
streets	4872
gripping	4873
coordinator	4874
responsible	4875
skills	4876
businessman	4877
remained	4878
thoroughly	4879
lost	4880
recorded	4881
downstream	4882
authoritative	4883
harder	4884
attorneys	4885
dose	4886
honor	4887
compute	4888
survey	4889
predict	4890
tor	4891
international	4892
transferred	4893
botany	4894
swam	4895
connects	4896
chorus	4897
mort	4898
##worthy	4899
enforce	4900
amended	4901
biting	4902
lotus	4903
brightened	4904
debts	4905
evil	4906
fantastic	4907
communicate	4908
cartoon	4909
puzzled	4910
volcanic	4911
worms	4912
bat	4913
christian	4914
ze	4915
feat	4916
mohammed	4917
courts	4918
desire	4919
tank	4920
hiroshi	4921
flinch	4922
mysteriously	4923
worm	4924
##gged	4925
serves	4926
saturday	4927
poured	4928
lover	4929
arrives	4930
##bly	4931
pause	4932
woke	4933
continual	4934
ceasefire	4935
res	4936
romantic	4937
spacious	4938
##iff	4939
##cle	4940
##fles	4941
##bri	4942
enthusiastic	4943
cosmetics	4944
##um	4945
jammed	4946
rave	4947
cooper	4948
##ically	4949
cursing	4950
gigantic	4951
whether	4952
larger	4953
bark	4954
pe	4955
feud	4956
tabloid	4957
implied	4958
fa	4959
deceased	4960
postage	4961
calculating	4962
yale	4963
cute	4964
chuckled	4965
drug	4966
##rc	4967
broken	4968
exotic	4969
studio	4970
superficial	4971
beings	4972
powder	4973
##ved	4974
madrid	4975
peoples	4976
graduation	4977
solution	4978
impress	4979
plant	4980
take	4981
extracted	4982
##keeping	4983
composers	4984
despair	4985
drowned	4986
##ging	4987
yang	4988
pirates	4989
sinks	4990
ruthless	4991
unity	4992
progressive	4993
acid	4994
sounds	4995
strange	4996
why	4997
safer	4998
##ili	4999
thesis	5000
curb	5001
##gue	5002
relax	5003
bottled	5004
spinning	5005
##gg	5006
##ories	5007
##load	5008
though	5009
poking	5010
religions	5011
poisoning	5012
filthy	5013
habitat	5014
excuses	5015
moving	5016
clears	5017
##rove	5018
compromised	5019
older	5020
kindly	5021
significance	5022
album	5023
above	5024
football	5025
scar	5026
ring	5027
shortage	5028
issues	5029
1610	5030
##unk	5031
seas	5032
nelson	5033
sketch	5034
flap	5035
constructive	5036
##art	5037
calcutta	5038
locked	5039
booths	5040
##ina	5041
wonderful	5042
thinkers	5043
attracts	5044
ain	5045
voyage	5046
waist	5047
wolf	5048
loan	5049
##oke	5050
##ending	5051
##awa	5052
observing	5053
##oo	5054
tournament	5055
tactic	5056
campaigning	5057
barrel	5058
gp	5059
dependent	5060
siberia	5061
womb	5062
slides	5063
cases	5064
texted	5065
fort	5066
##ated	5067
##kill	5068
gently	5069
##n	5070
indo	5071
##pp	5072
invalid	5073
bench	5074
candles	5075
##iss	5076
sailors	5077
##lar	5078
marks	5079
pushed	5080
devil	5081
snowfall	5082
##des	5083
tame	5084
representative	5085
blond	5086
net	5087
vanished	5088
torre	5089
became	5090
battle	5091
bees	5092
commander	5093
ich	5094
1983	5095
director	5096
warped	5097
deadline	5098
seldom	5099
305	5100
afternoons	5101
##mes	5102
motivation	5103
drummer	5104
decreased	5105
served	5106
rough	5107
##stic	5108
##al	5109
ea	5110
convicted	5111
myth	5112
flaw	5113
nuclear	5114
##cycle	5115
##ba	5116
percent	5117
entries	5118
giving	5119
saved	5120
sox	5121
ample	5122
iowa	5123
intervention	5124
mention	5125
avenue	5126
biking	5127
##ung	5128
competing	5129
putting	5130
##icated	5131
bicycles	5132
##rud	5133
resulting	5134
court	5135
furthermore	5136
roaring	5137
eyed	5138
disregard	5139
smelled	5140
ox	5141
marseille	5142
inn	5143
obsessed	5144
stabbed	5145
leaf	5146
heights	5147
pressures	5148
lux	5149
##ller	5150
##ker	5151
paul	5152
eccentric	5153
wonders	5154
##uga	5155
95	5156
words	5157
avoided	5158
gross	5159
prosecuted	5160
involving	5161
electrical	5162
heavily	5163
decrease	5164
affected	5165
islam	5166
confidential	5167
foolish	5168
comprehensive	5169
motion	5170
blinking	5171
##ever	5172
identify	5173
weapon	5174
bakery	5175
proves	5176
100	5177
aggression	5178
needy	5179
86	5180
or	5181
sang	5182
hazardous	5183
dinner	5184
##di	5185
5	5186
types	5187
di	5188
reporter	5189
##wa	5190
clicked	5191
facts	5192
temper	5193
essay	5194
microwave	5195
gardening	5196
post	5197
character	5198
##tia	5199
apparently	5200
brushing	5201
thousand	5202
stu	5203
freud	5204
bamboo	5205
buttons	5206
smoothing	5207
##q	5208
density	5209
antique	5210
vocabulary	5211
bias	5212
dots	5213
tempted	5214
popcorn	5215
ignoring	5216
farmers	5217
hi	5218
triggered	5219
##cens	5220
belonged	5221
ji	5222
unharmed	5223
spoon	5224
disneyland	5225
halted	5226
should	5227
mala	5228
not	5229
fingers	5230
backyard	5231
b	5232
apparent	5233
method	5234
proceeded	5235
##uc	5236
cancelled	5237
clearly	5238
possible	5239
##do	5240
medium	5241
scanned	5242
sought	5243
##ap	5244
##rea	5245
ad	5246
cold	5247
owned	5248
##hra	5249
assumption	5250
reunion	5251
borders	5252
##sin	5253
patted	5254
figures	5255
primitive	5256
blade	5257
podcast	5258
charges	5259
surprise	5260
##sha	5261
levels	5262
gay	5263
email	5264
summers	5265
twice	5266
pulse	5267
lured	5268
washing	5269
##uni	5270
##cit	5271
orchestra	5272
noah	5273
quad	5274
attempting	5275
skipped	5276
people	5277
predicted	5278
discs	5279
girl	5280
##rs	5281
##rov	5282
tickets	5283
##old	5284
speedy	5285
absurd	5286
guidance	5287
vehicle	5288
shall	5289
leapt	5290
##acies	5291
generous	5292
closet	5293
dubbed	5294
urgent	5295
appear	5296
rainforest	5297
catastrophe	5298
##ons	5299
consult	5300
##ree	5301
overlook	5302
relationships	5303
##raz	5304
voting	5305
mercury	5306
flow	5307
puppy	5308
##na	5309
temples	5310
supported	5311
intimate	5312
aston	5313
##ple	5314
options	5315
bombs	5316
common	5317
promising	5318
pigs	5319
straw	5320
duty	5321
germany	5322
angle	5323
judged	5324
imp	5325
painted	5326
divides	5327
trip	5328
regions	5329
losing	5330
classical	5331
disgusting	5332
##cast	5333
registers	5334
##bble	5335
alleviate	5336
equality	5337
brightest	5338
todd	5339
inspire	5340
stains	5341
seeded	5342
58	5343
sorcerer	5344
placed	5345
castle	5346
serving	5347
weather	5348
ukraine	5349
1910	5350
travel	5351
horrible	5352
recognizing	5353
hee	5354
implications	5355
showed	5356
disorders	5357
chapter	5358
edison	5359
developing	5360
abstract	5361
issue	5362
wonder	5363
played	5364
leaks	5365
coat	5366
walked	5367
heat	5368
minors	5369
films	5370
exception	5371
ultimate	5372
##plex	5373
truly	5374
reasonable	5375
melting	5376
prosecutor	5377
misery	5378
meadow	5379
ok	5380
imminent	5381
##rri	5382
poster	5383
dar	5384
samurai	5385
##mas	5386
connections	5387
corner	5388
sofa	5389
lavish	5390
##ffle	5391
knob	5392
##flower	5393
##ump	5394
rubbing	5395
yours	5396
expand	5397
##uel	5398
like	5399
locking	5400
frustrated	5401
computers	5402
drought	5403
valid	5404
slept	5405
##ivate	5406
ensure	5407
screams	5408
setting	5409
person	5410
ma	5411
diminished	5412
peacefully	5413
visitors	5414
good	5415
adorable	5416
##gs	5417
sized	5418
armenia	5419
shirts	5420
selected	5421
appetite	5422
frustrating	5423
hiroshima	5424
sensed	5425
obviously	5426
investors	5427
##im	5428
##sion	5429
maids	5430
atrocities	5431
surfaces	5432
launched	5433
niece	5434
problem	5435
talk	5436
earth	5437
imagining	5438
baby	5439
##ping	5440
stepped	5441
forbidden	5442
arena	5443
buddhist	5444
11th	5445
sm	5446
lenses	5447
tighten	5448
many	5449
california	5450
toss	5451
settled	5452
spared	5453
chamberlain	5454
canyon	5455
dinosaurs	5456
dunn	5457
yo	5458
##tric	5459
harvesting	5460
specify	5461
technique	5462
##tec	5463
##shed	5464
population	5465
boulder	5466
butterflies	5467
mar	5468
dime	5469
backup	5470
thinking	5471
pigeons	5472
sato	5473
uncommon	5474
spiked	5475
defense	5476
raced	5477
pl	5478
harm	5479
denying	5480
velvet	5481
freaking	5482
persistent	5483
boo	5484
idea	5485
wheel	5486
applicants	5487
amusing	5488
column	5489
successive	5490
nickname	5491
attract	5492
chickens	5493
swarm	5494
evade	5495
superior	5496
bless	5497
demonstrators	5498
##sms	5499
discoveries	5500
understands	5501
neatly	5502
uneasy	5503
yu	5504
crack	5505
215	5506
purpose	5507
coe	5508
roosevelt	5509
plastics	5510
##o	5511
##np	5512
daddy	5513
control	5514
waited	5515
completion	5516
dai	5517
monkeys	5518
softened	5519
moderate	5520
encyclopedia	5521
headlights	5522
guessed	5523
wives	5524
melville	5525
blackmail	5526
merchandise	5527
creativity	5528
##nts	5529
everest	5530
satisfy	5531
lighthouse	5532
peer	5533
##zine	5534
##ret	5535
leaked	5536
oldest	5537
compulsory	5538
malice	5539
severely	5540
exclude	5541
rust	5542
##gus	5543
intent	5544
corn	5545
economics	5546
vinegar	5547
yourself	5548
hospitality	5549
##ener	5550
advantages	5551
##tray	5552
##ually	5553
##ores	5554
anxiously	5555
##w	5556
expectation	5557
che	5558
evicted	5559
entertain	5560
caucasian	5561
##rf	5562
chew	5563
##ised	5564
channels	5565
gathering	5566
shark	5567
##ec	5568
ping	5569
racial	5570
protestant	5571
beds	5572
sai	5573
tiny	5574
##washed	5575
violinist	5576
mistakenly	5577
bones	5578
stunned	5579
angrily	5580
tails	5581
fault	5582
mt	5583
sunlight	5584
seizure	5585
scarf	5586
feminist	5587
strain	5588
ca	5589
concert	5590
##kon	5591
##rid	5592
miracles	5593
overtime	5594
confessions	5595
exaggerated	5596
##ache	5597
shifting	5598
wasp	5599
salmon	5600
acquaintance	5601
lamb	5602
wilson	5603
died	5604
grinning	5605
jail	5606
tab	5607
##ada	5608
##ched	5609
landed	5610
earned	5611
legend	5612
data	5613
audit	5614
takes	5615
exploring	5616
##tute	5617
schizophrenia	5618
##tical	5619
supplies	5620
barn	5621
harp	5622
register	5623
candidates	5624
teammates	5625
cameo	5626
import	5627
##tar	5628
brat	5629
scales	5630
poe	5631
conductor	5632
##sat	5633
govern	5634
110	5635
##day	5636
##hat	5637
narrative	5638
affects	5639
script	5640
box	5641
boyfriend	5642
fading	5643
para	5644
##gler	5645
affect	5646
##poo	5647
greens	5648
sells	5649
details	5650
familiarity	5651
branded	5652
tomorrow	5653
marriage	5654
aspirations	5655
business	5656
peruvian	5657
##ctic	5658
passes	5659
##hiff	5660
##mism	5661
daughters	5662
intense	5663
reaching	5664
bends	5665
hanged	5666
grateful	5667
##ndo	5668
groom	5669
appreciation	5670
premises	5671
dormitory	5672
av	5673
rhine	5674
mara	5675
gig	5676
manages	5677
cup	5678
greedy	5679
moon	5680
boat	5681
painfully	5682
diameter	5683
cuffs	5684
flat	5685
f	5686
robbery	5687
bi	5688
personnel	5689
uses	5690
##gies	5691
##well	5692
headed	5693
singer	5694
warning	5695
intriguing	5696
tiles	5697
31	5698
advocated	5699
##kan	5700
python	5701
cheer	5702
irish	5703
##ah	5704
prevent	5705
editor	5706
wavelength	5707
hoover	5708
worldwide	5709
rustling	5710
h₂o	5711
traces	5712
##at	5713
##osition	5714
deteriorating	5715
fries	5716
competitions	5717
eighty	5718
##ur	5719
insert	5720
##chs	5721
raises	5722
##hy	5723
casinos	5724
##all	5725
hostility	5726
##tic	5727
recovering	5728
concept	5729
appreciated	5730
##ico	5731
investments	5732
pressured	5733
shared	5734
incorrect	5735
##worm	5736
downs	5737
somehow	5738
smarter	5739
done	5740
humming	5741
god	5742
intervals	5743
##aged	5744
coached	5745
deck	5746
geared	5747
heroin	5748
##ments	5749
assure	5750
gauge	5751
influences	5752
morality	5753
function	5754
panel	5755
growth	5756
matching	5757
zipper	5758
frames	5759
speaks	5760
scraped	5761
spelled	5762
dance	5763
cuckoo	5764
entrance	5765
interaction	5766
renew	5767
bushes	5768
spaghetti	5769
impulse	5770
##mount	5771
sets	5772
fluids	5773
sense	5774
knocked	5775
demonstrate	5776
fumbled	5777
immediately	5778
alive	5779
##aya	5780
##orous	5781
moses	5782
dating	5783
speaker	5784
race	5785
sas	5786
park	5787
graduate	5788
sins	5789
launch	5790
invest	5791
hazel	5792
again	5793
##osa	5794
##ua	5795
logical	5796
reef	5797
fra	5798
cow	5799
dish	5800
##per	5801
mania	5802
jewelry	5803
tumbled	5804
holding	5805
dislike	5806
sac	5807
hesitation	5808
examination	5809
crooked	5810
pizza	5811
fracture	5812
thank	5813
##cher	5814
harvested	5815
churches	5816
disco	5817
recaptured	5818
sw	5819
burden	5820
sugar	5821
dig	5822
dorm	5823
cattle	5824
allies	5825
mainstream	5826
rosewood	5827
##gizing	5828
ease	5829
satisfactory	5830
celebrated	5831
pacing	5832
##usion	5833
unbearable	5834
trained	5835
ke	5836
rides	5837
48	5838
spat	5839
dangerously	5840
unexpectedly	5841
##is	5842
liverpool	5843
novelist	5844
starboard	5845
professor	5846
revised	5847
##mb	5848
brighter	5849
drill	5850
remotely	5851
mentor	5852
quiz	5853
chemicals	5854
referred	5855
pseudo	5856
intend	5857
section	5858
justin	5859
anyone	5860
##grad	5861
update	5862
lunatic	5863
hypnotic	5864
almost	5865
##hog	5866
adored	5867
##sible	5868
ana	5869
adolescents	5870
##tled	5871
dreaming	5872
##field	5873
internship	5874
shots	5875
rejected	5876
##dm	5877
liberties	5878
perceive	5879
entitled	5880
pounding	5881
propped	5882
##sight	5883
yoga	5884
ate	5885
atlas	5886
damage	5887
scared	5888
defendant	5889
she	5890
golden	5891
flaws	5892
12	5893
polished	5894
pedestal	5895
clapping	5896
immigrated	5897
temperate	5898
monitor	5899
sheet	5900
93	5901
crush	5902
knelt	5903
##hale	5904
organize	5905
determined	5906
conquered	5907
comments	5908
fell	5909
luc	5910
flying	5911
margin	5912
room	5913
##trip	5914
meals	5915
eat	5916
##ification	5917
war	5918
loving	5919
advance	5920
won	5921
traumatic	5922
bicycle	5923
commit	5924
##tre	5925
obey	5926
lethal	5927
wardrobe	5928
exceed	5929
basis	5930
silent	5931
distorted	5932
resides	5933
trans	5934
artifacts	5935
salvation	5936
folder	5937
widespread	5938
##dget	5939
soccer	5940
candle	5941
##ab	5942
annually	5943
isn	5944
nose	5945
delay	5946
lasts	5947
addict	5948
smooth	5949
roommate	5950
apology	5951
hinted	5952
narrowly	5953
burst	5954
praying	5955
blinds	5956
salesman	5957
psychological	5958
1950	5959
unarmed	5960
implication	5961
offspring	5962
jeans	5963
flu	5964
anyway	5965
flags	5966
automatically	5967
brasil	5968
##iating	5969
electric	5970
chords	5971
norman	5972
seasoned	5973
intervene	5974
boats	5975
carrot	5976
extract	5977
supper	5978
revealing	5979
1989	5980
tuition	5981
parade	5982
##cor	5983
fooled	5984
##uck	5985
broadcasts	5986
did	5987
warmer	5988
password	5989
materials	5990
rate	5991
shove	5992
conquer	5993
settlement	5994
another	5995
##missible	5996
##arable	5997
##col	5998
##tine	5999
admit	6000
bowls	6001
achilles	6002
2008	6003
invite	6004
pedestrian	6005
billions	6006
advocate	6007
introduction	6008
##oll	6009
likes	6010
generated	6011
infection	6012
atlantic	6013
misses	6014
##arian	6015
springs	6016
rabbits	6017
sidewalk	6018
##istic	6019
sole	6020
##end	6021
hesitated	6022
civilizations	6023
rep	6024
tattoo	6025
##iness	6026
converts	6027
caught	6028
protect	6029
operated	6030
enterprises	6031
##kind	6032
jam	6033
##itive	6034
ribbon	6035
sweets	6036
ambitions	6037
teen	6038
bedrooms	6039
ipad	6040
##uer	6041
compared	6042
fair	6043
contribute	6044
week	6045
##roids	6046
center	6047
core	6048
scheduled	6049
vip	6050
juice	6051
ss	6052
nine	6053
qui	6054
ko	6055
500	6056
hostile	6057
elderly	6058
privy	6059
teenager	6060
scratch	6061
advertisement	6062
hedge	6063
re	6064
aloud	6065
jailed	6066
clown	6067
##be	6068
river	6069
1947	6070
leukemia	6071
cruise	6072
##nated	6073
##pired	6074
productive	6075
protests	6076
##uchi	6077
ireland	6078
know	6079
complain	6080
‘	6081
obama	6082
curious	6083
differ	6084
concerns	6085
businesses	6086
lays	6087
pearl	6088
comedy	6089
overseas	6090
weak	6091
treatments	6092
autopsy	6093
slit	6094
social	6095
masks	6096
scenic	6097
oath	6098
drank	6099
miserable	6100
directed	6101
##rled	6102
components	6103
acidic	6104
exposed	6105
separation	6106
1958	6107
unwilling	6108
ultimatum	6109
swim	6110
phenomena	6111
investing	6112
drunk	6113
open	6114
##eck	6115
scientists	6116
rene	6117
impossible	6118
marvel	6119
seventeen	6120
platform	6121
zulu	6122
footing	6123
##ms	6124
hai	6125
stunt	6126
mis	6127
sleeper	6128
brass	6129
inherited	6130
denmark	6131
theories	6132
staff	6133
nude	6134
excellence	6135
represented	6136
handball	6137
sockets	6138
attitude	6139
protein	6140
humble	6141
verb	6142
##ative	6143
combine	6144
–	6145
1874	6146
dogs	6147
hail	6148
bumps	6149
pregnant	6150
surrounded	6151
helicopter	6152
claws	6153
silence	6154
helped	6155
pounds	6156
probability	6157
##sun	6158
wand	6159
disease	6160
degrees	6161
skating	6162
##mon	6163
sleeve	6164
realistic	6165
faulty	6166
motive	6167
frequency	6168
compass	6169
right	6170
practice	6171
interested	6172
october	6173
commission	6174
##offs	6175
##ones	6176
swore	6177
straight	6178
sophomore	6179
nearly	6180
recognition	6181
pencil	6182
atlantis	6183
path	6184
command	6185
collaboration	6186
saturdays	6187
restaurants	6188
encouragement	6189
roundabout	6190
oven	6191
waiter	6192
newton	6193
foundation	6194
aisle	6195
declaration	6196
atmosphere	6197
##cope	6198
agony	6199
nerve	6200
updated	6201
overcome	6202
unanimously	6203
composer	6204
##icon	6205
##sa	6206
invaded	6207
routine	6208
cellar	6209
desperately	6210
spectacular	6211
lifelong	6212
scores	6213
tingle	6214
rituals	6215
##owed	6216
denied	6217
enabled	6218
chinatown	6219
exceptionally	6220
jaws	6221
lean	6222
##pies	6223
##nish	6224
contributed	6225
cavity	6226
interfered	6227
souls	6228
reads	6229
ages	6230
terminology	6231
jerk	6232
manners	6233
olive	6234
indeed	6235
##sco	6236
clearer	6237
transport	6238
fruits	6239
thankful	6240
usage	6241
addiction	6242
objection	6243
organs	6244
##gging	6245
##ish	6246
##gui	6247
universal	6248
ward	6249
literature	6250
##ope	6251
frog	6252
push	6253
##cie	6254
oblivious	6255
bart	6256
immigrants	6257
##fur	6258
smiles	6259
drum	6260
depth	6261
##backs	6262
looked	6263
##ally	6264
review	6265
##dable	6266
corpse	6267
##bbly	6268
furnished	6269
mafia	6270
antenna	6271
competitors	6272
technological	6273
horror	6274
joined	6275
favourite	6276
studying	6277
outfits	6278
##isman	6279
##stick	6280
medications	6281
lame	6282
europeans	6283
##amy	6284
suspicion	6285
missions	6286
final	6287
petals	6288
ride	6289
catalogue	6290
bumped	6291
##oop	6292
concerts	6293
acts	6294
offs	6295
grenade	6296
fences	6297
slap	6298
around	6299
contemplating	6300
commuter	6301
beast	6302
gardener	6303
sea	6304
slump	6305
resources	6306
survival	6307
direct	6308
beaches	6309
buchanan	6310
appointed	6311
financially	6312
crate	6313
marketing	6314
root	6315
intensity	6316
cheating	6317
##och	6318
spiders	6319
pump	6320
samsung	6321
beautifully	6322
costly	6323
winters	6324
1973	6325
brew	6326
whistled	6327
##uted	6328
truth	6329
sucker	6330
cock	6331
professionals	6332
impressed	6333
sorts	6334
burn	6335
mario	6336
traditionally	6337
rib	6338
fools	6339
##hir	6340
pyramid	6341
cleaning	6342
organizes	6343
scholarship	6344
##cky	6345
correspondence	6346
displayed	6347
smoking	6348
normal	6349
stays	6350
bowed	6351
only	6352
##nee	6353
prize	6354
irresistible	6355
client	6356
gifts	6357
discover	6358
packages	6359
species	6360
humans	6361
hunted	6362
sinn	6363
voice	6364
tests	6365
thirteen	6366
suffered	6367
lists	6368
leading	6369
##mun	6370
questionable	6371
note	6372
difficulties	6373
machines	6374
##ssion	6375
preparations	6376
entire	6377
potter	6378
unless	6379
typed	6380
activities	6381
thames	6382
clothing	6383
insisted	6384
secret	6385
digest	6386
embarrassment	6387
speakers	6388
jorge	6389
laundry	6390
watered	6391
##belt	6392
humiliated	6393
concerned	6394
villain	6395
afraid	6396
veto	6397
slow	6398
goats	6399
permission	6400
disagreement	6401
cotton	6402
argues	6403
encourages	6404
##lim	6405
published	6406
enjoyed	6407
spoke	6408
overdose	6409
laborers	6410
##how	6411
##ski	6412
palms	6413
maiden	6414
glad	6415
insider	6416
adept	6417
vanilla	6418
wander	6419
tales	6420
##oya	6421
moved	6422
florida	6423
suburb	6424
den	6425
difficult	6426
secrecy	6427
christmas	6428
##rita	6429
chair	6430
predators	6431
collapse	6432
swear	6433
cope	6434
individually	6435
basque	6436
collaborators	6437
##rsa	6438
##mi	6439
limb	6440
scent	6441
escaped	6442
appeals	6443
##bay	6444
##ilo	6445
thorns	6446
sometimes	6447
insurance	6448
include	6449
rules	6450
chopped	6451
sloppy	6452
distinct	6453
##gic	6454
piled	6455
brazil	6456
claus	6457
medicine	6458
ladder	6459
##tti	6460
gangster	6461
servants	6462
symphony	6463
slight	6464
seal	6465
aboard	6466
russian	6467
compose	6468
lawn	6469
inflicted	6470
statues	6471
remote	6472
titanic	6473
##lt	6474
ace	6475
search	6476
evident	6477
dealers	6478
asa	6479
colleague	6480
plates	6481
prof	6482
35	6483
grow	6484
danes	6485
alien	6486
messing	6487
accent	6488
proportion	6489
ripped	6490
33	6491
bucket	6492
lending	6493
plays	6494
murder	6495
heartbreak	6496
health	6497
##tate	6498
stole	6499
##ul	6500
keys	6501
individual	6502
costs	6503
hurried	6504
fancy	6505
language	6506
##er	6507
##ffled	6508
canada	6509
##ici	6510
signaled	6511
albania	6512
heartbeat	6513
informed	6514
ant	6515
##aling	6516
veterans	6517
##upt	6518
louder	6519
disappointment	6520
viral	6521
outdoor	6522
prone	6523
pam	6524
separates	6525
beginning	6526
##mel	6527
kept	6528
##gil	6529
locals	6530
domestic	6531
foods	6532
whenever	6533
circle	6534
scandal	6535
poems	6536
pan	6537
ships	6538
startled	6539
marries	6540
mel	6541
encouraging	6542
roasted	6543
went	6544
origin	6545
jay	6546
welfare	6547
thought	6548
kansas	6549
##ating	6550
sure	6551
tube	6552
experiments	6553
belly	6554
##dge	6555
lab	6556
asteroids	6557
drawers	6558
##phobic	6559
hastily	6560
low	6561
toxic	6562
suddenly	6563
station	6564
unofficially	6565
invisible	6566
ordering	6567
donkey	6568
moves	6569
quantity	6570
liquid	6571
lead	6572
patiently	6573
earn	6574
abdominal	6575
courses	6576
unlike	6577
##uta	6578
plausible	6579
spotlight	6580
##vat	6581
fifth	6582
rapid	6583
lou	6584
glitter	6585
bathing	6586
li	6587
self	6588
mon	6589
centers	6590
addicted	6591
exports	6592
generate	6593
cab	6594
losers	6595
properly	6596
deepest	6597
told	6598
defiance	6599
likelihood	6600
rowe	6601
##ense	6602
smallpox	6603
enable	6604
##zing	6605
sharp	6606
acting	6607
identical	6608
botanist	6609
##tions	6610
fan	6611
evidence	6612
discrimination	6613
soaking	6614
iceland	6615
catastrophic	6616
spoken	6617
against	6618
videos	6619
alternate	6620
throughout	6621
##tter	6622
graduates	6623
foreigners	6624
##rain	6625
mad	6626
##ress	6627
finals	6628
fact	6629
fossil	6630
dignity	6631
got	6632
sucking	6633
protective	6634
meiji	6635
best	6636
provinces	6637
spiritual	6638
experiences	6639
excused	6640
hostess	6641
simplified	6642
economy	6643
adopt	6644
photos	6645
repetition	6646
breathe	6647
via	6648
lowered	6649
rowing	6650
cathedral	6651
##an	6652
erected	6653
cambodia	6654
swallow	6655
eastern	6656
telegraph	6657
neighbourhood	6658
weekly	6659
##hed	6660
une	6661
cards	6662
relaxed	6663
due	6664
##izes	6665
washed	6666
realize	6667
acres	6668
blouse	6669
share	6670
photographed	6671
san	6672
transition	6673
mayor	6674
hydra	6675
##wk	6676
bike	6677
organisation	6678
##sy	6679
bach	6680
retro	6681
incident	6682
forests	6683
lobby	6684
sweetheart	6685
unesco	6686
sorry	6687
asian	6688
assembled	6689
bump	6690
fields	6691
tallest	6692
##dote	6693
manual	6694
stage	6695
gunpowder	6696
beauty	6697
##itor	6698
maze	6699
sabotage	6700
##rb	6701
##en	6702
freight	6703
pouring	6704
unanimous	6705
players	6706
snow	6707
##ow	6708
##stle	6709
##storm	6710
traditions	6711
variety	6712
cuts	6713
##ver	6714
camera	6715
puzzles	6716
offered	6717
cautious	6718
##gles	6719
attributed	6720
garrison	6721
borrowing	6722
##ev	6723
expanded	6724
band	6725
comets	6726
hires	6727
teach	6728
locker	6729
##for	6730
consistent	6731
nap	6732
monsoon	6733
##par	6734
##brush	6735
##kawa	6736
but	6737
holidays	6738
processed	6739
fixed	6740
speed	6741
curly	6742
poorer	6743
##to	6744
nod	6745
worthy	6746
accelerated	6747
##jo	6748
ing	6749
busiest	6750
excess	6751
hung	6752
study	6753
##re	6754
utilizes	6755
girls	6756
##lum	6757
privately	6758
appeal	6759
cabin	6760
darwin	6761
##ppe	6762
turns	6763
smoked	6764
surely	6765
database	6766
trombone	6767
uniforms	6768
fe	6769
hub	6770
nat	6771
tobacco	6772
remarkably	6773
evacuate	6774
make	6775
sleeping	6776
repeating	6777
debating	6778
cooler	6779
soviet	6780
establish	6781
fed	6782
efficiency	6783
sigh	6784
smoke	6785
crew	6786
blocks	6787
translating	6788
quicker	6789
affordable	6790
billie	6791
criterion	6792
firms	6793
bang	6794
wake	6795
##ip	6796
##out	6797
##ute	6798
##fide	6799
halftime	6800
##ink	6801
overheard	6802
##ors	6803
achieved	6804
march	6805
goes	6806
victims	6807
hilton	6808
stew	6809
statue	6810
diversity	6811
squeezed	6812
##quent	6813
estate	6814
airplane	6815
term	6816
filed	6817
origins	6818
sheep	6819
cube	6820
piracy	6821
crying	6822
1974	6823
services	6824
passage	6825
rights	6826
locomotive	6827
almond	6828
code	6829
cigar	6830
using	6831
examinations	6832
ir	6833
millions	6834
nodding	6835
thumb	6836
rebuild	6837
pretend	6838
##ism	6839
lip	6840
sl	6841
dying	6842
proposes	6843
sciences	6844
fulfill	6845
his	6846
astronaut	6847
can	6848
dreams	6849
hottest	6850
superb	6851
hike	6852
massive	6853
rugby	6854
spade	6855
thanks	6856
absorb	6857
83	6858
practicing	6859
acquire	6860
##sper	6861
tractor	6862
##ys	6863
actual	6864
##ssed	6865
automobiles	6866
##berries	6867
clear	6868
classify	6869
exhaled	6870
lovely	6871
cries	6872
offers	6873
pumpkin	6874
farmer	6875
##pis	6876
##ws	6877
vein	6878
##claim	6879
naturally	6880
clinical	6881
democracy	6882
fund	6883
castles	6884
stretch	6885
appreciate	6886
weekends	6887
element	6888
style	6889
leonardo	6890
faces	6891
corporation	6892
plotting	6893
chairman	6894
##room	6895
remarkable	6896
##iti	6897
bending	6898
might	6899
##movable	6900
upside	6901
burns	6902
occupied	6903
fighter	6904
systems	6905
william	6906
faster	6907
reflection	6908
chemical	6909
copy	6910
contempt	6911
banned	6912
1956	6913
inflation	6914
deprived	6915
##vances	6916
quote	6917
gorilla	6918
hidden	6919
macbeth	6920
shortened	6921
##wl	6922
explicit	6923
papers	6924
nest	6925
peeked	6926
pro	6927
sentimental	6928
adjustment	6929
injuries	6930
wool	6931
finance	6932
enclosed	6933
detectives	6934
insult	6935
##edge	6936
although	6937
malicious	6938
tax	6939
fascinated	6940
sell	6941
telescope	6942
kilometer	6943
gunshot	6944
additional	6945
##olved	6946
lectured	6947
freshwater	6948
einstein	6949
lighting	6950
avoiding	6951
##ming	6952
false	6953
income	6954
flinched	6955
expressway	6956
rainbow	6957
apron	6958
grief	6959
profound	6960
listed	6961
numb	6962
transcript	6963
parole	6964
ethics	6965
##nsed	6966
partnership	6967
soft	6968
nouns	6969
logs	6970
##yp	6971
newcomers	6972
boots	6973
rattling	6974
networking	6975
##ita	6976
##bid	6977
##ologist	6978
gentleman	6979
##hr	6980
##lating	6981
##ipe	6982
formed	6983
raise	6984
cares	6985
your	6986
memory	6987
diet	6988
##hot	6989
##pal	6990
tu	6991
stolen	6992
ba	6993
hard	6994
eight	6995
integral	6996
creative	6997
notebook	6998
##sma	6999
cloak	7000
vigorous	7001
included	7002
expenses	7003
flight	7004
scanner	7005
back	7006
##over	7007
##lot	7008
recovered	7009
equivalent	7010
implying	7011
tuesday	7012
curse	7013
##nies	7014
el	7015
leak	7016
captivity	7017
##lining	7018
et	7019
magnificent	7020
##uls	7021
engineer	7022
stirred	7023
participated	7024
##anger	7025
keyboards	7026
emails	7027
firearms	7028
journey	7029
##ill	7030
##ct	7031
owns	7032
subscription	7033
chin	7034
spitting	7035
gps	7036
comfort	7037
hara	7038
scott	7039
##bet	7040
##av	7041
profit	7042
28	7043
rushed	7044
##ox	7045
##omi	7046
retire	7047
await	7048
analysis	7049
protesting	7050
potential	7051
130	7052
despite	7053
worse	7054
illegally	7055
##iente	7056
profession	7057
on	7058
##ice	7059
boasted	7060
##ni	7061
opinion	7062
directions	7063
legs	7064
ro	7065
swedish	7066
tb	7067
rehabilitation	7068
##list	7069
researcher	7070
disclosed	7071
##25	7072
kei	7073
keeping	7074
##por	7075
liquor	7076
assaulted	7077
puzzle	7078
shepherd	7079
##amp	7080
##ire	7081
pleaded	7082
bleeding	7083
embarrassing	7084
identification	7085
europe	7086
barr	7087
teams	7088
puts	7089
speechless	7090
insulin	7091
believing	7092
##shaft	7093
hydrogen	7094
##mat	7095
republican	7096
submit	7097
tries	7098
basel	7099
maru	7100
freezing	7101
shooter	7102
these	7103
creation	7104
choir	7105
presentation	7106
reserved	7107
bachelor	7108
staunch	7109
astonishing	7110
wizard	7111
report	7112
promises	7113
pg	7114
comprehend	7115
decidedly	7116
##uss	7117
november	7118
rival	7119
former	7120
clumsy	7121
par	7122
marching	7123
enjoy	7124
weigh	7125
##kra	7126
1936	7127
##ut	7128
tad	7129
counting	7130
skinned	7131
fresh	7132
translate	7133
##working	7134
mankind	7135
##hore	7136
amnesia	7137
gear	7138
clapped	7139
refused	7140
##coming	7141
##ace	7142
audio	7143
refrigerator	7144
greatly	7145
appointment	7146
plead	7147
show	7148
stern	7149
storm	7150
colour	7151
declined	7152
clinging	7153
invested	7154
basil	7155
safely	7156
speeches	7157
source	7158
desktop	7159
executed	7160
opened	7161
labor	7162
crossbow	7163
passing	7164
changed	7165
flock	7166
donations	7167
authorities	7168
construct	7169
brow	7170
formal	7171
sink	7172
if	7173
hammer	7174
married	7175
third	7176
ladies	7177
diagram	7178
reducing	7179
cobra	7180
organisms	7181
##orestation	7182
identified	7183
mecca	7184
##tte	7185
relaxing	7186
suspect	7187
##ien	7188
violently	7189
shows	7190
##ei	7191
panicked	7192
theme	7193
endurance	7194
##eptive	7195
sweaty	7196
than	7197
9	7198
keyboard	7199
imply	7200
mathematical	7201
whiskey	7202
waste	7203
##hin	7204
owner	7205
bugs	7206
##ari	7207
explorers	7208
inaccurate	7209
eater	7210
travelers	7211
##dell	7212
chicago	7213
squirrels	7214
repeated	7215
##xious	7216
invited	7217
rolls	7218
cord	7219
demo	7220
dozens	7221
pepsi	7222
awakened	7223
drawn	7224
criticisms	7225
coliseum	7226
mechanism	7227
ignorant	7228
sounded	7229
restrain	7230
usb	7231
single	7232
sock	7233
store	7234
real	7235
assume	7236
ourselves	7237
fuels	7238
thursday	7239
during	7240
bundle	7241
trouble	7242
floods	7243
hugging	7244
##pan	7245
##bla	7246
climbing	7247
western	7248
sending	7249
unrest	7250
groan	7251
80s	7252
##zawa	7253
##tch	7254
dodge	7255
spectator	7256
history	7257
profitable	7258
goo	7259
weakness	7260
camp	7261
legal	7262
conclusion	7263
bullet	7264
articles	7265
downstairs	7266
muscle	7267
breakfast	7268
markings	7269
position	7270
cooled	7271
cultural	7272
kinds	7273
20	7274
stupid	7275
irs	7276
ducked	7277
stopped	7278
cupboard	7279
breaths	7280
chicken	7281
proficient	7282
stepfather	7283
##eni	7284
##ga	7285
farewell	7286
luna	7287
fixture	7288
resemble	7289
1975	7290
fatal	7291
exceptions	7292
forward	7293
silky	7294
fluorescent	7295
cars	7296
##tro	7297
modest	7298
instincts	7299
preschool	7300
rescued	7301
technician	7302
sharpe	7303
hay	7304
fade	7305
this	7306
slate	7307
splash	7308
authors	7309
63	7310
430	7311
realise	7312
bonus	7313
began	7314
politics	7315
obsolete	7316
explosives	7317
briefcase	7318
indians	7319
debated	7320
eaten	7321
mature	7322
##lase	7323
1650	7324
suns	7325
21	7326
stories	7327
##ness	7328
crisis	7329
fear	7330
touchdown	7331
buddies	7332
crow	7333
falling	7334
90	7335
cardiovascular	7336
fate	7337
ordinary	7338
colonists	7339
##ager	7340
emptied	7341
combustion	7342
kings	7343
##tone	7344
excursion	7345
trying	7346
pursued	7347
nothing	7348
dissolve	7349
hole	7350
knit	7351
conducted	7352
signal	7353
build	7354
express	7355
gene	7356
lodge	7357
anymore	7358
revenge	7359
twitter	7360
##llo	7361
recess	7362
congratulations	7363
1977	7364
wanted	7365
exhibit	7366
rai	7367
reading	7368
cliff	7369
13	7370
reflex	7371
inappropriate	7372
##enting	7373
supreme	7374
flee	7375
trim	7376
ucla	7377
magic	7378
##ening	7379
tractors	7380
aspect	7381
clerk	7382
tree	7383
fu	7384
nudged	7385
outstanding	7386
##lled	7387
psychologist	7388
compartment	7389
##writer	7390
##tory	7391
1840s	7392
cyclist	7393
na	7394
swallowed	7395
last	7396
refuge	7397
susceptible	7398
ninety	7399
midnight	7400
men	7401
troubled	7402
lonely	7403
quit	7404
fought	7405
decades	7406
##icing	7407
merry	7408
parliament	7409
apples	7410
##para	7411
device	7412
quarter	7413
copyright	7414
ounce	7415
topped	7416
bikes	7417
pay	7418
dark	7419
##mates	7420
consolation	7421
edges	7422
cage	7423
legislation	7424
##active	7425
nile	7426
sham	7427
char	7428
##bbling	7429
distances	7430
breeze	7431
cable	7432
yet	7433
copies	7434
heads	7435
ears	7436
spotted	7437
1995	7438
popularity	7439
april	7440
talented	7441
layer	7442
hemingway	7443
sofia	7444
dissatisfaction	7445
##tama	7446
guarded	7447
party	7448
jar	7449
##ulated	7450
clint	7451
aim	7452
tv	7453
intern	7454
ce	7455
testament	7456
intro	7457
senators	7458
softness	7459
##fight	7460
bolted	7461
indicated	7462
##ash	7463
aero	7464
deco	7465
##bu	7466
dresses	7467
bars	7468
23	7469
##life	7470
pursuing	7471
nests	7472
sand	7473
communicated	7474
consideration	7475
formulas	7476
guarantees	7477
length	7478
next	7479
excited	7480
##ulates	7481
horseshoe	7482
library	7483
world	7484
polite	7485
secondary	7486
contracted	7487
born	7488
wednesday	7489
embark	7490
witness	7491
negotiating	7492
##rong	7493
##olo	7494
variable	7495
defective	7496
passenger	7497
salute	7498
peas	7499
existence	7500
approaching	7501
commune	7502
##ented	7503
fiancee	7504
describes	7505
explanation	7506
sponsors	7507
improve	7508
##ack	7509
##omp	7510
trap	7511
##ille	7512
feminine	7513
whisper	7514
astonished	7515
swing	7516
head	7517
##nate	7518
feel	7519
##cated	7520
site	7521
energetic	7522
cured	7523
backgrounds	7524
loyalists	7525
pressed	7526
whites	7527
naga	7528
their	7529
loads	7530
broadband	7531
pressure	7532
lust	7533
wears	7534
##otic	7535
naive	7536
wielding	7537
##lat	7538
doubtful	7539
bodies	7540
canadian	7541
##rdi	7542
##nel	7543
rubber	7544
reservation	7545
pitch	7546
stainless	7547
betrayed	7548
jungle	7549
stiff	7550
tigers	7551
riding	7552
detained	7553
pneumonia	7554
dared	7555
estimated	7556
years	7557
gathers	7558
leaves	7559
hungary	7560
blood	7561
alert	7562
surround	7563
sizes	7564
destroy	7565
quietly	7566
wines	7567
otherwise	7568
scored	7569
conde	7570
salty	7571
anxiety	7572
tag	7573
abraham	7574
firing	7575
warmth	7576
"	7577
failure	7578
indication	7579
##uity	7580
hacker	7581
computer	7582
oddly	7583
said	7584
asking	7585
##oun	7586
bad	7587
process	7588
lottery	7589
large	7590
acquisition	7591
sam	7592
sacrifices	7593
quilt	7594
hit	7595
essence	7596
breed	7597
twenties	7598
packs	7599
tri	7600
refuses	7601
situated	7602
1888	7603
homes	7604
tire	7605
mozart	7606
competed	7607
boom	7608
friction	7609
ask	7610
##zu	7611
century	7612
##genic	7613
traveling	7614
british	7615
cloud	7616
fool	7617
armenian	7618
##aking	7619
stroll	7620
flashbacks	7621
madison	7622
##li	7623
ll	7624
cartoons	7625
yearbook	7626
refugee	7627
##ches	7628
prosperous	7629
##plication	7630
paragraph	7631
lumber	7632
sum	7633
inadequate	7634
soon	7635
sydney	7636
college	7637
##pol	7638
torture	7639
hands	7640
trees	7641
##akes	7642
an	7643
harsh	7644
without	7645
succeeds	7646
envy	7647
moral	7648
wanting	7649
segregation	7650
extra	7651
measurements	7652
##bery	7653
very	7654
##games	7655
runs	7656
##boy	7657
historical	7658
kissed	7659
bared	7660
minnesota	7661
##nified	7662
##ull	7663
targets	7664
ami	7665
valet	7666
pry	7667
thai	7668
solid	7669
total	7670
leaking	7671
##hes	7672
##rop	7673
stubborn	7674
##uso	7675
informant	7676
flushed	7677
charities	7678
fluid	7679
pit	7680
instinctively	7681
power	7682
mechanic	7683
revolt	7684
elbow	7685
restrained	7686
railway	7687
kite	7688
##ord	7689
wagner	7690
convenient	7691
##wind	7692
unsafe	7693
bulky	7694
collector	7695
petersburg	7696
songwriter	7697
##ite	7698
lined	7699
##verance	7700
nagoya	7701
advise	7702
twentieth	7703
fingernails	7704
significant	7705
score	7706
electronic	7707
metaphor	7708
opt	7709
modified	7710
tend	7711
##roved	7712
song	7713
convenience	7714
sacred	7715
adopted	7716
literally	7717
posing	7718
alliance	7719
oceans	7720
decides	7721
sweet	7722
casino	7723
machine	7724
##og	7725
photographer	7726
jacket	7727
controlled	7728
invaders	7729
airplanes	7730
humanity	7731
differences	7732
volleyball	7733
bride	7734
waves	7735
insane	7736
utterly	7737
##hiti	7738
57	7739
alarms	7740
attempt	7741
coward	7742
tightened	7743
wasn	7744
gotta	7745
bequeathed	7746
stripped	7747
interpreter	7748
aba	7749
pushes	7750
agrees	7751
ruler	7752
having	7753
contains	7754
genoa	7755
weren	7756
##had	7757
preferred	7758
##eous	7759
planets	7760
##wer	7761
dragon	7762
sentenced	7763
##reate	7764
marvelous	7765
raging	7766
instructed	7767
ha	7768
browser	7769
##tery	7770
resemblance	7771
please	7772
closest	7773
some	7774
muslims	7775
co	7776
1955	7777
italian	7778
error	7779
translators	7780
gloom	7781
humiliating	7782
analyze	7783
##th	7784
weighed	7785
editing	7786
fangs	7787
##zz	7788
##ist	7789
##ds	7790
shop	7791
roughly	7792
seasons	7793
frowning	7794
widows	7795
ev	7796
award	7797
##drive	7798
till	7799
modern	7800
traitor	7801
leg	7802
allowed	7803
##nium	7804
gravity	7805
grain	7806
civil	7807
spaceship	7808
inches	7809
##nt	7810
peculiar	7811
islands	7812
specializes	7813
ka	7814
mushrooms	7815
##rre	7816
pets	7817
guitar	7818
leads	7819
grandpa	7820
cafeteria	7821
congress	7822
diplomatic	7823
purposes	7824
splendid	7825
goose	7826
philosophers	7827
resort	7828
##ged	7829
##yang	7830
26	7831
wandered	7832
experience	7833
chart	7834
natives	7835
rightful	7836
assert	7837
pajamas	7838
flickered	7839
tourists	7840
artery	7841
##bag	7842
female	7843
police	7844
1683	7845
wheat	7846
paste	7847
##ya	7848
400	7849
booth	7850
n	7851
brink	7852
mental	7853
huge	7854
lurched	7855
font	7856
paranormal	7857
climb	7858
##dda	7859
including	7860
tentatively	7861
##text	7862
sanitary	7863
16	7864
optimistic	7865
dictatorship	7866
##aris	7867
32	7868
##mate	7869
700	7870
envelope	7871
strategy	7872
flop	7873
amp	7874
##iro	7875
guys	7876
interfere	7877
mall	7878
##ton	7879
handful	7880
resisting	7881
duel	7882
##work	7883
ruining	7884
hardened	7885
egg	7886
strolled	7887
shivering	7888
basket	7889
rainy	7890
##oth	7891
brakes	7892
aristocracy	7893
mainly	7894
transported	7895
protested	7896
limp	7897
available	7898
drawer	7899
sighed	7900
opening	7901
policy	7902
besides	7903
lady	7904
operating	7905
scan	7906
marathon	7907
departing	7908
wounded	7909
##lor	7910
hut	7911
##cture	7912
parked	7913
hopefully	7914
battlefield	7915
region	7916
discussing	7917
survived	7918
kill	7919
kylie	7920
country	7921
prompted	7922
ninja	7923
visit	7924
wicked	7925
disgust	7926
luxurious	7927
chase	7928
st	7929
sustain	7930
prom	7931
cm	7932
surveillance	7933
height	7934
handwriting	7935
sweep	7936
what	7937
commanded	7938
chained	7939
aims	7940
concrete	7941
generosity	7942
improvements	7943
them	7944
mandate	7945
perspective	7946
respected	7947
compiling	7948
persian	7949
hamburger	7950
##lary	7951
son	7952
influenza	7953
conditioned	7954
fairly	7955
force	7956
poetry	7957
primary	7958
bidding	7959
illustrated	7960
differently	7961
unfinished	7962
recommend	7963
streaming	7964
grip	7965
acc	7966
sim	7967
attractive	7968
ch	7969
vet	7970
fills	7971
younger	7972
parcel	7973
condemned	7974
eruption	7975
##m	7976
simple	7977
germanic	7978
cowboy	7979
##vies	7980
permitting	7981
arrests	7982
symptoms	7983
rays	7984
surrender	7985
##l	7986
stress	7987
ni	7988
freshman	7989
members	7990
left	7991
##walk	7992
lens	7993
distance	7994
nagasaki	7995
alaska	7996
incidents	7997
au	7998
patrol	7999
zealand	8000
biological	8001
1970	8002
flip	8003
peeling	8004
jimmie	8005
##cks	8006
aliens	8007
brightly	8008
244	8009
20th	8010
plots	8011
does	8012
advisory	8013
television	8014
revive	8015
detector	8016
topic	8017
parish	8018
acoustic	8019
mild	8020
complained	8021
favorites	8022
transfer	8023
starbucks	8024
endure	8025
hangs	8026
heels	8027
whales	8028
killer	8029
mapped	8030
stakes	8031
1732	8032
solitude	8033
ra	8034
expert	8035
ama	8036
dude	8037
passions	8038
career	8039
prompt	8040
aircraft	8041
8th	8042
somewhat	8043
blankly	8044
##sel	8045
latin	8046
tipped	8047
lawrence	8048
established	8049
tucked	8050
marsh	8051
sound	8052
##hel	8053
##ander	8054
knot	8055
##cake	8056
aurora	8057
decoration	8058
genes	8059
obliged	8060
sixteenth	8061
majority	8062
phoenix	8063
gasps	8064
mint	8065
nucleus	8066
awaited	8067
stones	8068
tail	8069
eager	8070
prepares	8071
unexpected	8072
laws	8073
oxygen	8074
ten	8075
##hosis	8076
##6	8077
appointments	8078
jackson	8079
knees	8080
##yl	8081
furniture	8082
option	8083
bombay	8084
novel	8085
tr	8086
invasion	8087
terrific	8088
fighting	8089
mirror	8090
tends	8091
##oked	8092
##turn	8093
safe	8094
##phone	8095
hate	8096
intended	8097
pins	8098
##wives	8099
adventurous	8100
41	8101
jesus	8102
coma	8103
beg	8104
examined	8105
santa	8106
fever	8107
cp	8108
mocked	8109
revolution	8110
##imi	8111
democratic	8112
##uan	8113
impressions	8114
squeak	8115
freely	8116
##eering	8117
host	8118
comics	8119
danube	8120
volumes	8121
##ment	8122
issued	8123
designed	8124
2010	8125
##rave	8126
tribute	8127
##t	8128
voted	8129
jolly	8130
successful	8131
unpopular	8132
proudly	8133
remedy	8134
cure	8135
provisions	8136
dollar	8137
cease	8138
registered	8139
recovery	8140
companions	8141
verify	8142
involve	8143
screen	8144
clerks	8145
scrambled	8146
tread	8147
swimmers	8148
extraction	8149
steady	8150
possessions	8151
corners	8152
company	8153
diving	8154
counted	8155
horrified	8156
he	8157
pleased	8158
##uous	8159
grandchildren	8160
rental	8161
prayed	8162
switched	8163
reagan	8164
dashed	8165
radioactive	8166
fight	8167
focused	8168
ecology	8169
sliding	8170
adventures	8171
colorful	8172
severe	8173
vision	8174
domain	8175
bleed	8176
catholics	8177
aching	8178
uncovered	8179
treating	8180
concerto	8181
##lo	8182
##za	8183
prince	8184
trump	8185
two	8186
accustomed	8187
mentioning	8188
outlaw	8189
obtain	8190
dye	8191
org	8192
##sack	8193
caf	8194
thirties	8195
##ue	8196
necklace	8197
qualified	8198
pink	8199
chemotherapy	8200
airport	8201
obeyed	8202
animals	8203
singapore	8204
##watch	8205
'	8206
seaside	8207
contents	8208
emotions	8209
jr	8210
alright	8211
soy	8212
gu	8213
artificial	8214
crop	8215
throne	8216
fbi	8217
##take	8218
dedicated	8219
acquired	8220
proceeds	8221
##fed	8222
pet	8223
1600	8224
elegant	8225
blanket	8226
originals	8227
efforts	8228
##maker	8229
gritted	8230
expelled	8231
kobe	8232
##ta	8233
nail	8234
##graph	8235
father	8236
traveled	8237
preceding	8238
drastic	8239
roman	8240
greeted	8241
derived	8242
joining	8243
disasters	8244
after	8245
marched	8246
##v	8247
heavy	8248
assumed	8249
thicker	8250
##tra	8251
onto	8252
fundamental	8253
imaginary	8254
local	8255
birthday	8256
stroke	8257
##mal	8258
tells	8259
brain	8260
ownership	8261
villagers	8262
recommended	8263
##aves	8264
stanza	8265
hygiene	8266
trail	8267
quo	8268
##sey	8269
jelly	8270
ut	8271
unnecessary	8272
museums	8273
stomach	8274
sign	8275
aquarium	8276
plunged	8277
constraints	8278
##hetic	8279
surface	8280
behavior	8281
judge	8282
surgical	8283
cia	8284
explains	8285
differing	8286
basic	8287
##weig	8288
mysteries	8289
##unda	8290
iran	8291
thereby	8292
wo	8293
luxury	8294
faith	8295
no	8296
bear	8297
warrant	8298
noun	8299
dev	8300
mistake	8301
lately	8302
undergone	8303
midst	8304
ancestors	8305
cap	8306
##mps	8307
rug	8308
itself	8309
##liner	8310
prison	8311
pee	8312
severed	8313
unauthorized	8314
characterized	8315
politician	8316
robbers	8317
officers	8318
package	8319
remind	8320
endured	8321
dressing	8322
conferences	8323
buried	8324
jet	8325
##x	8326
##tism	8327
playing	8328
savior	8329
##tained	8330
coastal	8331
sweat	8332
utilized	8333
lived	8334
vessel	8335
parent	8336
wall	8337
tied	8338
##uki	8339
laughter	8340
swat	8341
shoulder	8342
service	8343
guards	8344
reasons	8345
moat	8346
glance	8347
scenery	8348
napkin	8349
cong	8350
tall	8351
performance	8352
hoped	8353
struggle	8354
tre	8355
##oka	8356
sunshine	8357
##lie	8358
##elt	8359
mode	8360
beside	8361
thirty	8362
unemployed	8363
interviewed	8364
birthplace	8365
utter	8366
mug	8367
angry	8368
human	8369
paying	8370
pillar	8371
richest	8372
beverages	8373
factors	8374
battalions	8375
nickel	8376
month	8377
lift	8378
obstacles	8379
cheaper	8380
ponytail	8381
vegetables	8382
elves	8383
submitted	8384
membership	8385
##ep	8386
request	8387
pays	8388
hesitate	8389
unfair	8390
reluctantly	8391
street	8392
##logist	8393
centimeters	8394
forcing	8395
youth	8396
##ych	8397
oklahoma	8398
spreading	8399
replacing	8400
color	8401
denial	8402
laugh	8403
learning	8404
revelation	8405
calming	8406
##icles	8407
warlord	8408
enter	8409
obstacle	8410
effects	8411
anime	8412
##uder	8413
john	8414
graceful	8415
lava	8416
valve	8417
needed	8418
jars	8419
lessons	8420
##iling	8421
responding	8422
amsterdam	8423
hope	8424
peeled	8425
crook	8426
woods	8427
formidable	8428
inventory	8429
deaths	8430
ceo	8431
swung	8432
lives	8433
links	8434
kiev	8435
swans	8436
symbol	8437
political	8438
sheets	8439
kn	8440
teachers	8441
travels	8442
letting	8443
##ves	8444
much	8445
writing	8446
begun	8447
likely	8448
detroit	8449
chunk	8450
courageous	8451
attic	8452
##ailed	8453
da	8454
booklet	8455
stars	8456
portion	8457
muttered	8458
thirsty	8459
magician	8460
##ance	8461
possess	8462
ached	8463
bedside	8464
injected	8465
performed	8466
affairs	8467
occasional	8468
liking	8469
occasion	8470
miraculous	8471
confront	8472
opposing	8473
armed	8474
journalists	8475
murmured	8476
sphinx	8477
fined	8478
home	8479
skirts	8480
##kel	8481
interior	8482
je	8483
drugged	8484
noticed	8485
wrecked	8486
execute	8487
groceries	8488
steam	8489
noisy	8490
1865	8491
##ont	8492
imagine	8493
arabic	8494
guitarist	8495
determine	8496
##bered	8497
##lling	8498
oxford	8499
don	8500
admitted	8501
pancakes	8502
photography	8503
cater	8504
ve	8505
hurts	8506
zee	8507
resented	8508
rio	8509
manufactures	8510
feeder	8511
apartment	8512
##bus	8513
often	8514
clinic	8515
fierce	8516
creek	8517
##zaki	8518
x	8519
capable	8520
orbit	8521
suggested	8522
harmony	8523
mommy	8524
eleven	8525
replaced	8526
cheat	8527
boston	8528
finally	8529
discretion	8530
nowhere	8531
recall	8532
fifteen	8533
testify	8534
azerbaijani	8535
enters	8536
observed	8537
limitations	8538
sake	8539
suffer	8540
groans	8541
paw	8542
transplant	8543
##hab	8544
motorcycles	8545
manage	8546
##rk	8547
screens	8548
horses	8549
unions	8550
destroyed	8551
nineteenth	8552
umpire	8553
incomplete	8554
biased	8555
swap	8556
hound	8557
game	8558
saw	8559
alto	8560
shoved	8561
footsteps	8562
loosen	8563
reservations	8564
trains	8565
mouths	8566
disc	8567
malaria	8568
represent	8569
begins	8570
##ddy	8571
##stead	8572
handling	8573
slashed	8574
excel	8575
starving	8576
ceramics	8577
plus	8578
antarctic	8579
##ega	8580
mining	8581
refurbished	8582
egypt	8583
applies	8584
##rat	8585
chopin	8586
##ivo	8587
possesses	8588
edged	8589
124	8590
stamped	8591
##gon	8592
culture	8593
##rit	8594
s	8595
institution	8596
space	8597
orchard	8598
obesity	8599
irritating	8600
heading	8601
vary	8602
1797	8603
rally	8604
exercises	8605
showered	8606
trauma	8607
unacceptable	8608
orphans	8609
substance	8610
overturned	8611
##don	8612
venice	8613
oppression	8614
fire	8615
either	8616
sprang	8617
dem	8618
janeiro	8619
##tip	8620
rack	8621
level	8622
really	8623
##hic	8624
declaring	8625
spokesman	8626
##hill	8627
wise	8628
lear	8629
reporting	8630
##cre	8631
presents	8632
and	8633
upstairs	8634
rise	8635
determining	8636
shot	8637
instruments	8638
scrolling	8639
civilians	8640
freaks	8641
cultures	8642
felt	8643
opponents	8644
rev	8645
released	8646
hacked	8647
##gas	8648
masters	8649
yen	8650
operator	8651
authorization	8652
eyelids	8653
half	8654
occur	8655
winds	8656
##enia	8657
located	8658
actor	8659
principles	8660
claim	8661
sunset	8662
skiing	8663
guarding	8664
celebrity	8665
##guard	8666
judging	8667
link	8668
ahead	8669
longest	8670
body	8671
sentiment	8672
stay	8673
strained	8674
treats	8675
stunning	8676
ne	8677
er	8678
whistling	8679
carefully	8680
abroad	8681
##cula	8682
##ums	8683
,	8684
##ou	8685
ukrainian	8686
canoe	8687
surgery	8688
sudden	8689
longed	8690
##kling	8691
arts	8692
preventing	8693
vancouver	8694
immunity	8695
banker	8696
mani	8697
big	8698
shoe	8699
lacks	8700
lightning	8701
explored	8702
going	8703
assignments	8704
berries	8705
paralyzed	8706
nerves	8707
walks	8708
crews	8709
private	8710
geometry	8711
highly	8712
unreliable	8713
genius	8714
prohibits	8715
ultraviolet	8716
indifferent	8717
sociology	8718
1962	8719
tucson	8720
bucks	8721
terrifying	8722
initially	8723
market	8724
rock	8725
techno	8726
inherit	8727
grit	8728
wiring	8729
access	8730
significantly	8731
adams	8732
amazon	8733
slowing	8734
senate	8735
problems	8736
dioxide	8737
endeavors	8738
##ob	8739
##ew	8740
stretched	8741
been	8742
especially	8743
##card	8744
##ts	8745
milton	8746
description	8747
##irs	8748
triple	8749
apologize	8750
rotten	8751
notch	8752
bai	8753
skimmed	8754
imprisonment	8755
french	8756
##ki	8757
threaten	8758
minogue	8759
floors	8760
leaned	8761
unpredictable	8762
##torm	8763
magnitude	8764
cara	8765
##tose	8766
admired	8767
evaluate	8768
escalated	8769
lobes	8770
solitary	8771
medals	8772
thailand	8773
agent	8774
##ler	8775
phil	8776
##lessly	8777
outdoors	8778
idle	8779
50	8780
swollen	8781
baker	8782
cavern	8783
swift	8784
hospitalized	8785
border	8786
ruled	8787
bulls	8788
nurse	8789
translated	8790
bomb	8791
her	8792
indies	8793
libraries	8794
noise	8795
illustration	8796
probably	8797
emotionally	8798
jealousy	8799
methods	8800
settlers	8801
dressed	8802
less	8803
vanity	8804
warships	8805
##creen	8806
mouth	8807
mormon	8808
would	8809
cake	8810
date	8811
unite	8812
awoke	8813
competition	8814
zone	8815
acted	8816
##nock	8817
cambridge	8818
preacher	8819
seven	8820
nevada	8821
knowledge	8822
word	8823
recording	8824
globally	8825
##eg	8826
scissors	8827
arch	8828
regarded	8829
avid	8830
##udes	8831
segment	8832
divorced	8833
widely	8834
intelligent	8835
##cala	8836
##ware	8837
##bies	8838
achieve	8839
blue	8840
ended	8841
amount	8842
totally	8843
parted	8844
stretches	8845
##nail	8846
whisky	8847
china	8848
abducted	8849
##tal	8850
definitions	8851
cocoa	8852
wow	8853
book	8854
liver	8855
whipped	8856
wrinkled	8857
wolves	8858
mattered	8859
gallery	8860
july	8861
occasions	8862
stupidity	8863
##sing	8864
we	8865
designate	8866
reacted	8867
writer	8868
heal	8869
six	8870
extinction	8871
voluntarily	8872
smart	8873
1976	8874
##sca	8875
settling	8876
planted	8877
throwing	8878
undoubtedly	8879
monday	8880
disturb	8881
priest	8882
descendants	8883
december	8884
##mist	8885
draft	8886
ton	8887
##ulation	8888
grades	8889
##ert	8890
arranging	8891
##cal	8892
##ius	8893
##pone	8894
great	8895
emotion	8896
shortest	8897
greasy	8898
rotate	8899
factories	8900
lasted	8901
hid	8902
##app	8903
inevitable	8904
national	8905
caps	8906
inch	8907
accounted	8908
##asi	8909
movies	8910
lifting	8911
secretary	8912
impatient	8913
forgetting	8914
introduce	8915
mit	8916
##iated	8917
application	8918
promptly	8919
intelligence	8920
unrelated	8921
claims	8922
figured	8923
##cards	8924
hill	8925
still	8926
receipt	8927
##od	8928
w	8929
hurting	8930
dismiss	8931
gossip	8932
tasks	8933
dos	8934
cleaned	8935
valleys	8936
##ida	8937
explain	8938
kick	8939
##iful	8940
fragments	8941
angles	8942
bash	8943
shower	8944
indicates	8945
beach	8946
stop	8947
##urse	8948
bracelet	8949
##jure	8950
giant	8951
##rified	8952
reacts	8953
see	8954
caesar	8955
starved	8956
##xed	8957
marked	8958
disturbing	8959
ignores	8960
##heard	8961
once	8962
##atics	8963
##au	8964
litter	8965
visibly	8966
explaining	8967
temperature	8968
##sable	8969
activity	8970
bullets	8971
mig	8972
panic	8973
chilled	8974
stink	8975
##ght	8976
pen	8977
kitchens	8978
%	8979
supermarket	8980
requirements	8981
sail	8982
favorite	8983
everybody	8984
colors	8985
floats	8986
##rail	8987
##ight	8988
fried	8989
sermon	8990
thrilling	8991
pinched	8992
blushing	8993
##we	8994
##board	8995
altitude	8996
commotion	8997
scrubbed	8998
##hi	8999
burning	9000
sect	9001
##ias	9002
proposed	9003
fastest	9004
wedge	9005
vacancy	9006
printer	9007
earthquake	9008
hazard	9009
reluctant	9010
survives	9011
documentaries	9012
##finger	9013
diseases	9014
automobile	9015
here	9016
fridge	9017
hardest	9018
mattress	9019
scientist	9020
winston	9021
climbs	9022
hundred	9023
fold	9024
footprint	9025
added	9026
shell	9027
schooling	9028
memories	9029
courtesy	9030
##lli	9031
key	9032
document	9033
gnu	9034
changing	9035
doors	9036
p	9037
executives	9038
-	9039
spread	9040
walk	9041
sources	9042
nearby	9043
liv	9044
wished	9045
pill	9046
justify	9047
##hom	9048
bishop	9049
desert	9050
nervously	9051
cheers	9052
inquired	9053
drunken	9054
glasses	9055
bell	9056
adults	9057
dynamite	9058
spite	9059
america	9060
console	9061
linux	9062
admitting	9063
40	9064
##ier	9065
particularly	9066
decorated	9067
squirrel	9068
download	9069
oriental	9070
homeland	9071
acquitted	9072
financial	9073
##pl	9074
behaved	9075
worrying	9076
rely	9077
sniffed	9078
professional	9079
scary	9080
wine	9081
invitation	9082
bladder	9083
##sse	9084
road	9085
##ape	9086
bought	9087
hall	9088
normally	9089
ted	9090
citizenship	9091
west	9092
humidity	9093
hive	9094
gr	9095
tastes	9096
limit	9097
hardware	9098
desk	9099
bearer	9100
laser	9101
spraying	9102
rear	9103
dismissed	9104
##med	9105
chain	9106
raining	9107
avail	9108
slipping	9109
ranch	9110
shining	9111
parts	9112
immense	9113
mentally	9114
disappointed	9115
demon	9116
pioneer	9117
poorly	9118
##founded	9119
arrest	9120
##ic	9121
shovel	9122
permit	9123
##shu	9124
strictly	9125
public	9126
underwater	9127
##jet	9128
regaining	9129
behave	9130
mood	9131
cigarettes	9132
condo	9133
benefits	9134
conditioning	9135
##uit	9136
raged	9137
structural	9138
im	9139
hook	9140
bandit	9141
picture	9142
taller	9143
constantly	9144
demonstrated	9145
gases	9146
tablet	9147
considerable	9148
auction	9149
##vant	9150
25th	9151
pun	9152
dishes	9153
##cta	9154
pt	9155
stand	9156
##ner	9157
related	9158
granted	9159
##ignant	9160
corrupt	9161
sore	9162
commanding	9163
possibilities	9164
dedication	9165
smells	9166
anxious	9167
cows	9168
sizable	9169
few	9170
numbers	9171
##sities	9172
fortunate	9173
17	9174
dubois	9175
stab	9176
##oy	9177
##tched	9178
vibrating	9179
##gled	9180
criminals	9181
##ram	9182
glimpse	9183
administrator	9184
percentage	9185
suggestions	9186
worship	9187
spying	9188
stitch	9189
dumb	9190
torch	9191
army	9192
monitored	9193
revenue	9194
areas	9195
healing	9196
ironic	9197
visible	9198
early	9199
latest	9200
27	9201
contest	9202
degree	9203
riddle	9204
pretending	9205
stone	9206
##gers	9207
trigger	9208
similar	9209
21st	9210
beloved	9211
reassuring	9212
down	9213
sing	9214
##king	9215
##inating	9216
offering	9217
##ult	9218
mach	9219
##chio	9220
##bers	9221
whale	9222
controversial	9223
curtains	9224
searched	9225
elbows	9226
bedroom	9227
priority	9228
wires	9229
longing	9230
anchorage	9231
##ogist	9232
clay	9233
naked	9234
bulb	9235
rites	9236
applicable	9237
happened	9238
agenda	9239
how	9240
entering	9241
cloudy	9242
##imate	9243
flew	9244
promise	9245
disturbed	9246
christians	9247
##fire	9248
cholera	9249
manufacturer	9250
charity	9251
escaping	9252
elephant	9253
interpretation	9254
tumor	9255
sharpened	9256
una	9257
suppressed	9258
hugely	9259
idiots	9260
##eber	9261
sky	9262
dear	9263
powerful	9264
bewildered	9265
fukuoka	9266
prescription	9267
thoughtfully	9268
hours	9269
subjects	9270
violation	9271
debate	9272
lifted	9273
shakes	9274
##cked	9275
##rai	9276
##pass	9277
teddy	9278
purchase	9279
cal	9280
grammar	9281
tie	9282
laughed	9283
unfit	9284
46	9285
competitor	9286
referee	9287
doorbell	9288
coffin	9289
clock	9290
cruel	9291
wipe	9292
killings	9293
divided	9294
shrimp	9295
claimed	9296
withdrawal	9297
categories	9298
powerless	9299
##aid	9300
growled	9301
##r	9302
agitated	9303
brilliant	9304
sin	9305
comedians	9306
fingertips	9307
##ies	9308
sonata	9309
offensive	9310
attachment	9311
wind	9312
ringing	9313
heel	9314
along	9315
superiority	9316
accidentally	9317
neglected	9318
grows	9319
##ick	9320
instruction	9321
broadcast	9322
workplace	9323
bet	9324
appearance	9325
craft	9326
savage	9327
cher	9328
warnings	9329
hitting	9330
avenge	9331
colored	9332
##zi	9333
ranking	9334
lay	9335
ot	9336
paint	9337
fusion	9338
sixty	9339
transmit	9340
abrupt	9341
trust	9342
class	9343
##imated	9344
attending	9345
bonds	9346
shook	9347
office	9348
##pate	9349
decay	9350
##sser	9351
matter	9352
trusting	9353
southern	9354
cooperate	9355
##ites	9356
rude	9357
citizens	9358
taxis	9359
conduct	9360
dolphins	9361
pep	9362
erase	9363
driving	9364
harmed	9365
creaked	9366
requested	9367
spill	9368
form	9369
coated	9370
##iculate	9371
semi	9372
##boat	9373
##ics	9374
sweater	9375
aid	9376
##rites	9377
terribly	9378
muslim	9379
first	9380
folks	9381
##athi	9382
basketball	9383
annoyed	9384
sword	9385
##oning	9386
##hit	9387
renewable	9388
crime	9389
upset	9390
hotter	9391
##broken	9392
##rad	9393
##ogen	9394
bats	9395
intimacy	9396
puppet	9397
contributions	9398
workers	9399
afterwards	9400
##eit	9401
printed	9402
##cts	9403
passport	9404
wallet	9405
##mble	9406
51	9407
check	9408
1863	9409
reluctance	9410
impressive	9411
2003	9412
fraud	9413
august	9414
avoid	9415
joe	9416
##bar	9417
quiet	9418
divorce	9419
squinted	9420
sarcasm	9421
guns	9422
farms	9423
##eding	9424
animal	9425
acquainted	9426
plastered	9427
c	9428
bum	9429
saying	9430
parking	9431
plans	9432
paranoid	9433
expected	9434
forty	9435
anthropology	9436
prisoner	9437
##d	9438
predictions	9439
cricket	9440
staircase	9441
blurred	9442
##isance	9443
rebelled	9444
seventh	9445
realizes	9446
kidnapping	9447
stared	9448
loco	9449
commercial	9450
crash	9451
gratitude	9452
declared	9453
nonetheless	9454
fireworks	9455
sealed	9456
lips	9457
essential	9458
kid	9459
##itated	9460
##ile	9461
strings	9462
stood	9463
##firm	9464
lid	9465
far	9466
empathy	9467
##tangle	9468
##dy	9469
legends	9470
##udge	9471
salt	9472
positively	9473
15	9474
aren	9475
##ri	9476
dog	9477
lifestyle	9478
wit	9479
sacrificed	9480
redundant	9481
brown	9482
ash	9483
backing	9484
kenji	9485
symphonic	9486
humid	9487
##y	9488
pure	9489
singing	9490
##jack	9491
developed	9492
blocking	9493
text	9494
lad	9495
##rling	9496
##ako	9497
disappeared	9498
##omic	9499
wants	9500
graveyard	9501
talking	9502
soda	9503
rein	9504
systematically	9505
bea	9506
unconstitutional	9507
accidents	9508
strips	9509
carol	9510
pal	9511
locate	9512
stumbled	9513
wider	9514
span	9515
license	9516
driven	9517
assess	9518
precisely	9519
syllables	9520
jersey	9521
any	9522
strawberry	9523
together	9524
curve	9525
helens	9526
blues	9527
##ough	9528
warm	9529
milan	9530
carrying	9531
vital	9532
hiking	9533
balls	9534
##ergy	9535
1996	9536
reputation	9537
allow	9538
sync	9539
living	9540
terrified	9541
extinct	9542
champagne	9543
wiped	9544
selfish	9545
hood	9546
vowed	9547
canals	9548
ku	9549
quieter	9550
alarm	9551
creations	9552
swimming	9553
stature	9554
ruin	9555
swamp	9556
jolted	9557
complete	9558
starts	9559
##de	9560
creating	9561
george	9562
preserves	9563
jogging	9564
twelve	9565
minimal	9566
headmaster	9567
average	9568
bud	9569
clutch	9570
timetable	9571
lights	9572
jumping	9573
afar	9574
detailed	9575
sheriff	9576
brother	9577
breathed	9578
unhappy	9579
##break	9580
hunting	9581
##book	9582
squash	9583
sunk	9584
project	9585
##dict	9586
followed	9587
hon	9588
clothes	9589
weighing	9590
chef	9591
wrenched	9592
makeshift	9593
household	9594
##cer	9595
kidnapped	9596
##boys	9597
instrumental	9598
beaver	9599
##zo	9600
coke	9601
muddy	9602
defeat	9603
rumors	9604
global	9605
goodness	9606
figure	9607
houses	9608
towel	9609
##phi	9610
##nka	9611
##rized	9612
throw	9613
casualty	9614
penetrating	9615
skill	9616
duties	9617
woo	9618
headquarters	9619
poem	9620
particular	9621
collisions	9622
georgia	9623
shutter	9624
aka	9625
drying	9626
royce	9627
sight	9628
shaking	9629
confident	9630
soldiers	9631
prizes	9632
whispered	9633
effectively	9634
start	9635
bread	9636
borrow	9637
thigh	9638
baked	9639
bricks	9640
forgiven	9641
tragic	9642
##gh	9643
optical	9644
##mot	9645
motor	9646
outer	9647
##fully	9648
reindeer	9649
##ivity	9650
applied	9651
vain	9652
##tze	9653
silhouette	9654
tenant	9655
stamp	9656
##ents	9657
##coat	9658
pray	9659
##eem	9660
fetch	9661
hour	9662
harassed	9663
providing	9664
investigating	9665
violin	9666
orange	9667
badger	9668
##tain	9669
reaction	9670
##ured	9671
someone	9672
republic	9673
sits	9674
##nch	9675
abundant	9676
sting	9677
##ving	9678
orient	9679
towards	9680
plants	9681
dropped	9682
marrying	9683
backs	9684
doctrine	9685
nurses	9686
##shot	9687
usable	9688
interest	9689
martini	9690
blockade	9691
reject	9692
reduction	9693
it	9694
help	9695
wife	9696
amounted	9697
eyes	9698
vows	9699
will	9700
caution	9701
photographic	9702
##uled	9703
crosses	9704
zurich	9705
dresser	9706
solo	9707
americans	9708
outrageous	9709
disappearance	9710
##tle	9711
lent	9712
prepare	9713
trapped	9714
##chy	9715
missile	9716
oldies	9717
outskirts	9718
bolts	9719
##isto	9720
##hered	9721
inability	9722
##p	9723
chatting	9724
republicans	9725
hackney	9726
##rate	9727
ohio	9728
fists	9729
convinced	9730
responses	9731
angel	9732
##ard	9733
##brate	9734
wounds	9735
tell	9736
deciding	9737
nations	9738
##suit	9739
##mmy	9740
publication	9741
intellectual	9742
ventured	9743
##while	9744
whispering	9745
treat	9746
meaningless	9747
##umble	9748
ware	9749
greenhouse	9750
resulted	9751
receives	9752
cleopatra	9753
front	9754
max	9755
vampires	9756
det	9757
tenants	9758
mats	9759
##mpt	9760
##pt	9761
bore	9762
tuck	9763
strangled	9764
merlin	9765
##ery	9766
##ant	9767
arrogance	9768
grabbed	9769
ego	9770
tragedy	9771
praises	9772
lucky	9773
disciplined	9774
wondered	9775
##lam	9776
disgusted	9777
##so	9778
southernmost	9779
ri	9780
arson	9781
abnormal	9782
tim	9783
eu	9784
craving	9785
relay	9786
serum	9787
gazing	9788
random	9789
concern	9790
disapproval	9791
throat	9792
om	9793
depends	9794
instructor	9795
##inate	9796
guided	9797
honeymoon	9798
seems	9799
vc	9800
tremendous	9801
saddam	9802
disk	9803
decide	9804
rates	9805
meal	9806
bounds	9807
##resh	9808
##odle	9809
nicely	9810
##fo	9811
bug	9812
bankrupt	9813
shocked	9814
underwood	9815
##crat	9816
pour	9817
##fle	9818
approved	9819
wage	9820
functional	9821
buys	9822
economical	9823
working	9824
##res	9825
volunteer	9826
misunderstood	9827
##cum	9828
tires	9829
gender	9830
##und	9831
##kie	9832
inferior	9833
escapes	9834
cost	9835
concerning	9836
fond	9837
unlock	9838
consent	9839
lazy	9840
suggestion	9841
toys	9842
determination	9843
majors	9844
unlawful	9845
worlds	9846
arguing	9847
figuring	9848
wrongly	9849
bliss	9850
##bed	9851
ankara	9852
resolution	9853
killers	9854
pounded	9855
rubbed	9856
skipping	9857
military	9858
noses	9859
mechanics	9860
explode	9861
conspiracy	9862
bribery	9863
metal	9864
protection	9865
toes	9866
tiger	9867
##yo	9868
##ca	9869
disposed	9870
coffee	9871
straighten	9872
dagger	9873
to	9874
motioned	9875
chewed	9876
peel	9877
finger	9878
writers	9879
answer	9880
cookie	9881
dramatically	9882
##ous	9883
goodnight	9884
##ub	9885
values	9886
women	9887
fashion	9888
sexy	9889
clocks	9890
apprentice	9891
slack	9892
dotted	9893
standard	9894
monument	9895
heaven	9896
whereabouts	9897
bull	9898
excellent	9899
constructed	9900
60	9901
struggling	9902
pass	9903
block	9904
tutor	9905
##gger	9906
negotiate	9907
1970s	9908
art	9909
##utable	9910
pilgrimage	9911
arrested	9912
anti	9913
47	9914
mothers	9915
tide	9916
queen	9917
england	9918
epic	9919
##ual	9920
##gawa	9921
choice	9922
curtain	9923
##pour	9924
canceled	9925
snorted	9926
ii	9927
##down	9928
corporations	9929
spear	9930
operative	9931
zero	9932
whoever	9933
run	9934
listened	9935
learned	9936
fiercely	9937
delays	9938
handgun	9939
migrate	9940
##print	9941
medal	9942
predictable	9943
holds	9944
faced	9945
mid	9946
wavelengths	9947
##lip	9948
weight	9949
plank	9950
manuel	9951
potatoes	9952
hal	9953
reborn	9954
tense	9955
frogs	9956
slice	9957
programmers	9958
pride	9959
newspapers	9960
##hre	9961
someplace	9962
beer	9963
ob	9964
froze	9965
diego	9966
merger	9967
sensible	9968
enough	9969
forming	9970
cannon	9971
monk	9972
injured	9973
accountant	9974
mother	9975
wouldn	9976
purchased	9977
equation	9978
pilots	9979
protesters	9980
cities	9981
ongoing	9982
sentence	9983
enjoying	9984
fitting	9985
say	9986
##che	9987
chestnut	9988
spells	9989
freeze	9990
sites	9991
motorcycle	9992
sulfur	9993
bun	9994
shattered	9995
eating	9996
messages	9997
edition	9998
historically	9999
bio	10000
reduce	10001
vest	10002
bred	10003
offended	10004
argument	10005
dwell	10006
cops	10007
google	10008
leveled	10009
orchid	10010
ban	10011
gaze	10012
traced	10013
herman	10014
unwanted	10015
dealt	10016
booked	10017
wilde	10018
sul	10019
arteries	10020
treasure	10021
dropping	10022
wraps	10023
novels	10024
##tted	10025
preliminary	10026
cardiac	10027
online	10028
rash	10029
spends	10030
brunette	10031
pitches	10032
humor	10033
qualification	10034
way	10035
oriented	10036
spend	10037
##nged	10038
chalk	10039
community	10040
passed	10041
tomatoes	10042
traps	10043
dialects	10044
negotiation	10045
handed	10046
louis	10047
planned	10048
nasty	10049
skeptical	10050
cooked	10051
overs	10052
sp	10053
handicapped	10054
assistance	10055
sean	10056
pitching	10057
journal	10058
terms	10059
menu	10060
visits	10061
dancing	10062
examples	10063
dragged	10064
ticked	10065
funds	10066
reduced	10067
rod	10068
everyone	10069
ribs	10070
saves	10071
ty	10072
year	10073
retired	10074
accounting	10075
dessert	10076
promote	10077
plot	10078
also	10079
suits	10080
ruined	10081
hideout	10082
accomplishments	10083
##cker	10084
##ze	10085
##am	10086
wrestler	10087
organ	10088
radios	10089
secure	10090
leaders	10091
seine	10092
adapt	10093
murders	10094
interpreted	10095
heirs	10096
hobby	10097
limits	10098
instinct	10099
boxers	10100
barge	10101
fifteenth	10102
solutions	10103
trailer	10104
previous	10105
flirting	10106
spider	10107
mostly	10108
seized	10109
##kal	10110
1972	10111
owed	10112
lanes	10113
sour	10114
bold	10115
insufficient	10116
hunger	10117
goal	10118
bu	10119
parallel	10120
inventions	10121
definition	10122
supplied	10123
unsuitable	10124
seated	10125
prep	10126
resume	10127
shaken	10128
##oran	10129
##chi	10130
expanding	10131
##ibe	10132
interruption	10133
gulf	10134
alcohol	10135
website	10136
adjusted	10137
childhood	10138
indonesia	10139
wept	10140
florence	10141
sequel	10142
harbor	10143
need	10144
wars	10145
##bat	10146
identity	10147
oasis	10148
bow	10149
forte	10150
##itating	10151
industries	10152
taiwanese	10153
adding	10154
archer	10155
making	10156
twisted	10157
preparation	10158
nights	10159
looks	10160
worst	10161
storms	10162
mule	10163
outgoing	10164
##si	10165
snacks	10166
devote	10167
flash	10168
nor	10169
theaters	10170
following	10171
##mo	10172
duck	10173
mac	10174
quakers	10175
intensive	10176
relevant	10177
##amo	10178
well	10179
written	10180
outcome	10181
##dier	10182
each	10183
breaks	10184
abandoned	10185
slang	10186
##ifier	10187
ras	10188
wings	10189
bags	10190
ignored	10191
arms	10192
hat	10193
bush	10194
laptop	10195
comrades	10196
think	10197
approached	10198
generation	10199
paws	10200
##g	10201
destruction	10202
eyebrows	10203
attacked	10204
cushions	10205
sex	10206
occurrence	10207
##c	10208
both	10209
now	10210
##olic	10211
214	10212
gun	10213
hated	10214
tradition	10215
beaten	10216
guilt	10217
sensing	10218
eva	10219
carpets	10220
##dra	10221
prop	10222
cheated	10223
##cho	10224
friendly	10225
caller	10226
swimmer	10227
brush	10228
anonymous	10229
##rift	10230
messed	10231
adequate	10232
regrets	10233
prime	10234
carrie	10235
conclusions	10236
##zzling	10237
mortal	10238
else	10239
acceptable	10240
sy	10241
owls	10242
wish	10243
linguistics	10244
happy	10245
demanded	10246
##oli	10247
cans	10248
criminal	10249
blessed	10250
prank	10251
happier	10252
easier	10253
blizzard	10254
lever	10255
kyushu	10256
boost	10257
ceremony	10258
thoughts	10259
engines	10260
##ril	10261
wire	10262
chases	10263
acute	10264
##under	10265
programs	10266
adventure	10267
able	10268
ankle	10269
cracked	10270
feels	10271
##ger	10272
doomed	10273
complement	10274
mike	10275
movements	10276
analyst	10277
decor	10278
libel	10279
underwent	10280
smirk	10281
snail	10282
lend	10283
##hun	10284
hear	10285
##power	10286
strip	10287
##chu	10288
hairs	10289
##pr	10290
creature	10291
understanding	10292
##bia	10293
##urne	10294
kit	10295
historian	10296
##cted	10297
ambiguous	10298
hardship	10299
ignore	10300
##ods	10301
dipped	10302
solved	10303
grinding	10304
##das	10305
deposited	10306
extraordinary	10307
barred	10308
lincoln	10309
notorious	10310
limited	10311
row	10312
supportive	10313
##ool	10314
beef	10315
##hing	10316
##rier	10317
fence	10318
value	10319
pedestrians	10320
batter	10321
diagonal	10322
beak	10323
##h	10324
focus	10325
tattoos	10326
drink	10327
##fighter	10328
stairs	10329
suspicions	10330
ste	10331
##bling	10332
communicating	10333
federal	10334
attempted	10335
vice	10336
fall	10337
prisoners	10338
1911	10339
willing	10340
guests	10341
solve	10342
scenario	10343
verge	10344
poet	10345
correctional	10346
##uttered	10347
ones	10348
belief	10349
##wife	10350
ski	10351
soared	10352
theater	10353
lisa	10354
##bags	10355
couldn	10356
because	10357
kilograms	10358
reviews	10359
approve	10360
chores	10361
nocturnal	10362
find	10363
admission	10364
muscles	10365
budget	10366
toilets	10367
group	10368
heavier	10369
rains	10370
anytime	10371
influenced	10372
##ena	10373
deteriorated	10374
urban	10375
sir	10376
hearing	10377
##vent	10378
fairies	10379
unnoticed	10380
charter	10381
##sg	10382
##die	10383
mail	10384
response	10385
carriages	10386
bigger	10387
object	10388
racing	10389
courtroom	10390
has	10391
page	10392
clockwise	10393
up	10394
##pon	10395
abolished	10396
treaty	10397
minimum	10398
wishes	10399
remix	10400
anticipated	10401
pointing	10402
tracks	10403
reconciled	10404
choked	10405
opinions	10406
deity	10407
lifetime	10408
considered	10409
##bbed	10410
des	10411
family	10412
instrument	10413
descended	10414
##bled	10415
horns	10416
gasped	10417
continuously	10418
din	10419
threatening	10420
##et	10421
hen	10422
rid	10423
philosophy	10424
##rated	10425
blend	10426
formally	10427
wren	10428
confederate	10429
growing	10430
unusual	10431
og	10432
##sto	10433
sometime	10434
rare	10435
mastering	10436
assured	10437
rent	10438
genuinely	10439
killed	10440
burnt	10441
talents	10442
##ize	10443
protest	10444
cafe	10445
troll	10446
hammered	10447
mi	10448
rocker	10449
suppliers	10450
spent	10451
direction	10452
prevention	10453
listen	10454
thud	10455
rob	10456
afternoon	10457
forbid	10458
##box	10459
##ng	10460
chairperson	10461
feet	10462
mark	10463
outside	10464
mondays	10465
##fe	10466
four	10467
##bau	10468
future	10469
matches	10470
##us	10471
dump	10472
transmitted	10473
##logy	10474
withstand	10475
calculated	10476
pm	10477
arranged	10478
tolerated	10479
performing	10480
traffic	10481
message	10482
performer	10483
recommendation	10484
beatles	10485
counts	10486
confusing	10487
complaints	10488
d	10489
bridges	10490
##mark	10491
mobile	10492
mona	10493
##ny	10494
perhaps	10495
closes	10496
moment	10497
##ffy	10498
smoothly	10499
entertained	10500
hourly	10501
sauce	10502
mentioned	10503
hopes	10504
ancient	10505
irritated	10506
manuscript	10507
physics	10508
reason	10509
crouched	10510
capacity	10511
##berg	10512
execution	10513
politicians	10514
wash	10515
threatened	10516
barbecue	10517
embryo	10518
bottoms	10519
demand	10520
1978	10521
athletes	10522
delicately	10523
successfully	10524
valley	10525
##test	10526
##vin	10527
joy	10528
99	10529
##uven	10530
sank	10531
troops	10532
lacking	10533
##tin	10534
handy	10535
second	10536
28th	10537
##wash	10538
disorder	10539
imitation	10540
##lu	10541
seventeenth	10542
storage	10543
firefighters	10544
300	10545
audition	10546
nervous	10547
same	10548
##dly	10549
passion	10550
hereditary	10551
##ils	10552
rainfall	10553
honestly	10554
##rted	10555
slices	10556
##vu	10557
harvest	10558
test	10559
opera	10560
hunts	10561
masses	10562
customers	10563
rubbish	10564
drafted	10565
luck	10566
employee	10567
cereal	10568
surrendered	10569
water	10570
haste	10571
##hol	10572
flatly	10573
##ra	10574
involved	10575
appears	10576
successes	10577
proposals	10578
salaries	10579
hare	10580
splashed	10581
sec	10582
bing	10583
mistaken	10584
tale	10585
##nik	10586
##wed	10587
efficient	10588
attendant	10589
diary	10590
punish	10591
hurt	10592
##wi	10593
tan	10594
barking	10595
attacking	10596
slipped	10597
shocking	10598
match	10599
##bo	10600
sorrow	10601
model	10602
##tation	10603
overwhelming	10604
suspiciously	10605
##cing	10606
spies	10607
calculations	10608
medicines	10609
leaving	10610
necessarily	10611
catalan	10612
gained	10613
vast	10614
##minate	10615
cabaret	10616
networks	10617
sack	10618
detail	10619
sights	10620
strengths	10621
slaughter	10622
civic	10623
stan	10624
##our	10625
bored	10626
##cci	10627
terminal	10628
##nio	10629
awarded	10630
sakura	10631
impatience	10632
lavender	10633
##thic	10634
galaxies	10635
yields	10636
demanding	10637
##9	10638
crept	10639
projects	10640
answers	10641
##tou	10642
pregnancy	10643
##horn	10644
pirate	10645
longer	10646
meets	10647
##iard	10648
secured	10649
barbarians	10650
##fires	10651
##some	10652
you	10653
richter	10654
progress	10655
string	10656
drastically	10657
duke	10658
##ros	10659
retirement	10660
##used	10661
slightly	10662
outta	10663
accused	10664
arthritis	10665
growling	10666
context	10667
milling	10668
come	10669
neighbours	10670
hunter	10671
##clusive	10672
approach	10673
mustang	10674
##e	10675
cooking	10676
##lco	10677
doubt	10678
tremor	10679
vegetation	10680
##lative	10681
repeat	10682
leaning	10683
mercy	10684
alcoholism	10685
wood	10686
adobe	10687
explicitly	10688
shave	10689
dock	10690
knows	10691
picasso	10692
sadness	10693
educated	10694
##rin	10695
rebel	10696
gdp	10697
raul	10698
counterparts	10699
trunk	10700
silly	10701
haired	10702
taken	10703
classmates	10704
braid	10705
##tized	10706
##lated	10707
caressed	10708
piercing	10709
foot	10710
##dina	10711
honors	10712
chatter	10713
enlarged	10714
blake	10715
dining	10716
scream	10717
exceeding	10718
dim	10719
##lau	10720
by	10721
settle	10722
##rm	10723
grapes	10724
toad	10725
favor	10726
##bana	10727
pronounced	10728
##dis	10729
happen	10730
own	10731
hell	10732
birth	10733
##iter	10734
sharing	10735
##uch	10736
ads	10737
feeling	10738
wing	10739
tear	10740
deeds	10741
abu	10742
depend	10743
##usly	10744
fifties	10745
simplest	10746
yourselves	10747
keen	10748
justice	10749
justified	10750
suicidal	10751
dumped	10752
##fying	10753
guarantee	10754
##lence	10755
valor	10756
repay	10757
input	10758
compounds	10759
##ractive	10760
##ie	10761
anticipating	10762
lyricist	10763
shi	10764
hudson	10765
##ization	10766
amusement	10767
drifted	10768
francois	10769
forth	10770
##ious	10771
noticing	10772
loop	10773
motivated	10774
sleeps	10775
merchant	10776
gills	10777
reminding	10778
genuine	10779
gloves	10780
/	10781
##hine	10782
clung	10783
cooks	10784
account	10785
convictions	10786
1935	10787
bodily	10788
picturesque	10789
enthusiasm	10790
blur	10791
extinguished	10792
higher	10793
aroused	10794
ability	10795
concluded	10796
pin	10797
received	10798
persuaded	10799
counties	10800
nh	10801
rated	10802
calmed	10803
aristotle	10804
##ook	10805
pains	10806
olympics	10807
disappointing	10808
spontaneous	10809
there	10810
bears	10811
bullying	10812
honey	10813
temple	10814
accounts	10815
slippery	10816
agencies	10817
chasing	10818
dragging	10819
wear	10820
desired	10821
arab	10822
trimmed	10823
lord	10824
howled	10825
horse	10826
refugees	10827
binoculars	10828
entry	10829
##shing	10830
ab	10831
places	10832
upstate	10833
team	10834
enemy	10835
tripped	10836
blown	10837
owl	10838
guardian	10839
festival	10840
holdings	10841
merely	10842
unique	10843
surfing	10844
found	10845
crowds	10846
persuade	10847
hopeful	10848
honest	10849
chief	10850
spit	10851
native	10852
##sies	10853
uploaded	10854
reach	10855
##con	10856
focusing	10857
urges	10858
tears	10859
hawk	10860
gunn	10861
si	10862
telling	10863
warmly	10864
square	10865
engagement	10866
software	10867
800	10868
forest	10869
pension	10870
spectators	10871
calf	10872
location	10873
despised	10874
su	10875
researchers	10876
haunted	10877
##mar	10878
jump	10879
product	10880
exploited	10881
rehab	10882
astronomy	10883
poke	10884
exercising	10885
monetary	10886
mu	10887
##date	10888
circumstances	10889
president	10890
trainer	10891
withdrew	10892
eggs	10893
where	10894
zoo	10895
presenting	10896
premature	10897
tons	10898
diagnosis	10899
spelling	10900
swell	10901
talks	10902
weeks	10903
shade	10904
unconventional	10905
##cede	10906
today	10907
##tis	10908
button	10909
dreadful	10910
cakes	10911
##rogated	10912
weakened	10913
partner	10914
mama	10915
comes	10916
##ound	10917
blooms	10918
mum	10919
##zes	10920
himalayas	10921
prepared	10922
period	10923
replace	10924
collided	10925
disliked	10926
smelling	10927
certificate	10928
exhibits	10929
peasant	10930
tick	10931
##back	10932
times	10933
onions	10934
possibly	10935
18	10936
orders	10937
brings	10938
patience	10939
development	10940
generations	10941
expects	10942
enhance	10943
mosques	10944
displeasure	10945
advantage	10946
##ination	10947
colleagues	10948
messenger	10949
duff	10950
ancestor	10951
sees	10952
scrap	10953
needles	10954
territories	10955
##ani	10956
wakes	10957
peaceful	10958
prediction	10959
hog	10960
##rie	10961
presence	10962
##sol	10963
task	10964
offenders	10965
telegram	10966
gal	10967
newspaper	10968
nailed	10969
called	10970
admiring	10971
slavery	10972
##sai	10973
accessible	10974
##sle	10975
electricity	10976
relying	10977
gift	10978
##loaded	10979
assisted	10980
stream	10981
##ross	10982
michael	10983
shocks	10984
relieved	10985
follows	10986
earning	10987
books	10988
cooperation	10989
railing	10990
##tight	10991
votes	10992
confused	10993
##cloth	10994
clients	10995
##acious	10996
fascinating	10997
hates	10998
requires	10999
plug	11000
strongest	11001
sipped	11002
calling	11003
strike	11004
penguins	11005
christianity	11006
favour	11007
design	11008
arched	11009
67	11010
builds	11011
shut	11012
schools	11013
mammals	11014
dictionary	11015
version	11016
##iers	11017
returning	11018
look	11019
##ect	11020
##write	11021
favorable	11022
princes	11023
##dre	11024
##pet	11025
ex	11026
freaked	11027
fi	11028
##cable	11029
banjo	11030
cracking	11031
tenth	11032
gui	11033
warned	11034
##ets	11035
phrase	11036
reflects	11037
miniature	11038
motives	11039
microsoft	11040
session	11041
main	11042
versa	11043
##dock	11044
ghostly	11045
tampa	11046
##ience	11047
instead	11048
upbringing	11049
tattooed	11050
neighboring	11051
wrong	11052
produced	11053
innocent	11054
altar	11055
initiation	11056
edge	11057
##ting	11058
advanced	11059
backward	11060
##hand	11061
posted	11062
##ns	11063
shame	11064
trusts	11065
weighs	11066
whatsoever	11067
worthless	11068
contrary	11069
ram	11070
airship	11071
add	11072
promotional	11073
fuss	11074
pieces	11075
artists	11076
mat	11077
rented	11078
apply	11079
garden	11080
##fication	11081
carriage	11082
##beat	11083
number	11084
architecture	11085
confessed	11086
obsession	11087
plucked	11088
##olis	11089
sentences	11090
consulting	11091
mars	11092
rescuing	11093
raft	11094
summer	11095
backstage	11096
sniffing	11097
sit	11098
cited	11099
refrain	11100
vinci	11101
sales	11102
perception	11103
vibe	11104
##quitable	11105
cottage	11106
ours	11107
neither	11108
auto	11109
scratched	11110
terrible	11111
cream	11112
&	11113
##uy	11114
cent	11115
terrorists	11116
ur	11117
couple	11118
revenues	11119
facing	11120
officials	11121
negotiated	11122
endangered	11123
attendance	11124
agree	11125
texans	11126
taste	11127
sexual	11128
unknown	11129
opposition	11130
devastating	11131
unnatural	11132
baggage	11133
greet	11134
##sta	11135
##ades	11136
shells	11137
pa	11138
bali	11139
##gar	11140
kettle	11141
exhaust	11142
pants	11143
warehouse	11144
conform	11145
factor	11146
graffiti	11147
filming	11148
perform	11149
##tor	11150
science	11151
battery	11152
touching	11153
outlook	11154
village	11155
includes	11156
weasel	11157
activist	11158
imperative	11159
##shida	11160
specialty	11161
improved	11162
laughs	11163
child	11164
sailor	11165
drowning	11166
embrace	11167
garage	11168
entertainment	11169
sandwich	11170
declare	11171
windmill	11172
##zy	11173
stressed	11174
##tt	11175
lifespan	11176
##bal	11177
grounds	11178
##ring	11179
wheelchair	11180
marketplace	11181
forced	11182
driver	11183
imposed	11184
resign	11185
sons	11186
nightingale	11187
shelves	11188
distinction	11189
okay	11190
symmetrical	11191
##ized	11192
newcomer	11193
immortal	11194
##ka	11195
relatively	11196
massachusetts	11197
##dit	11198
inclined	11199
rained	11200
##osh	11201
rumor	11202
other	11203
failing	11204
adhere	11205
ou	11206
##fies	11207
aggravated	11208
encryption	11209
backpack	11210
##taking	11211
scenes	11212
inner	11213
weapons	11214
achievement	11215
##ption	11216
argued	11217
twenty	11218
##vie	11219
difficulty	11220
mount	11221
##ef	11222
infectious	11223
stung	11224
chi	11225
inspiring	11226
psycho	11227
licking	11228
title	11229
governments	11230
sap	11231
bartender	11232
bra	11233
cleared	11234
redhead	11235
robot	11236
landscapes	11237
roger	11238
mastered	11239
goat	11240
essays	11241
bent	11242
examine	11243
attache	11244
grind	11245
ago	11246
heroic	11247
digging	11248
vomiting	11249
separately	11250
default	11251
grand	11252
bitten	11253
virtues	11254
parlor	11255
mold	11256
shaped	11257
suggesting	11258
testing	11259
smug	11260
money	11261
privilege	11262
decreasing	11263
disrupt	11264
moody	11265
stranger	11266
organized	11267
drinking	11268
##ction	11269
island	11270
temptation	11271
las	11272
characteristic	11273
jo	11274
sporting	11275
loud	11276
flashlight	11277
mischievous	11278
bill	11279
enjoyable	11280
bid	11281
rematch	11282
leather	11283
pound	11284
states	11285
chiba	11286
defects	11287
cemetery	11288
##ave	11289
stack	11290
true	11291
##eum	11292
posed	11293
##walker	11294
subjective	11295
folded	11296
verbs	11297
happens	11298
explosions	11299
trades	11300
lil	11301
edinburgh	11302
king	11303
ethical	11304
forces	11305
rested	11306
accusing	11307
##fr	11308
fine	11309
##hus	11310
master	11311
drag	11312
medical	11313
concealed	11314
winner	11315
ache	11316
remembered	11317
##tie	11318
love	11319
converted	11320
marine	11321
guard	11322
name	11323
##iche	11324
bait	11325
surplus	11326
teacher	11327
##ffed	11328
biologist	11329
##ggles	11330
eve	11331
advertising	11332
plains	11333
mute	11334
ripe	11335
##ft	11336
netherlands	11337
those	11338
endowed	11339
stacked	11340
relationship	11341
covered	11342
illegal	11343
cough	11344
##umb	11345
card	11346
dame	11347
get	11348
aging	11349
consisted	11350
darkened	11351
kindness	11352
be	11353
tanker	11354
relied	11355
##ning	11356
patch	11357
new	11358
harmful	11359
fails	11360
0	11361
prem	11362
afghanistan	11363
reprint	11364
voters	11365
accusations	11366
june	11367
dry	11368
split	11369
bit	11370
thinks	11371
paints	11372
rotating	11373
coach	11374
composed	11375
forks	11376
der	11377
tourism	11378
guts	11379
jug	11380
tornado	11381
miami	11382
##sie	11383
neutral	11384
arrogant	11385
measure	11386
largely	11387
##ami	11388
fashioned	11389
shadowed	11390
sundays	11391
cop	11392
arctic	11393
chartered	11394
##ride	11395
##emi	11396
herbert	11397
##drop	11398
hats	11399
columbus	11400
whichever	11401
united	11402
biggest	11403
granddaughter	11404
curiosity	11405
tokyo	11406
tam	11407
penn	11408
visited	11409
30th	11410
##get	11411
victim	11412
##pha	11413
playground	11414
existed	11415
sharply	11416
embassy	11417
momentarily	11418
def	11419
cut	11420
disposal	11421
underground	11422
deleted	11423
pre	11424
laced	11425
supporters	11426
plain	11427
##ig	11428
strong	11429
switch	11430
individuals	11431
ever	11432
steak	11433
video	11434
##nut	11435
##red	11436
opportunities	11437
ass	11438
tolerant	11439
out	11440
handkerchief	11441
foreman	11442
lawyer	11443
inserted	11444
valued	11445
nightmare	11446
bruise	11447
tasted	11448
fencing	11449
announcer	11450
tricks	11451
continued	11452
seat	11453
und	11454
earlier	11455
poets	11456
democrat	11457
priorities	11458
##nted	11459
my	11460
preservation	11461
##30	11462
hatred	11463
##wr	11464
staring	11465
##building	11466
coming	11467
satisfaction	11468
roses	11469
playful	11470
respectable	11471
domination	11472
inside	11473
deposit	11474
loser	11475
reckon	11476
as	11477
visa	11478
explanations	11479
enjoyment	11480
chu	11481
yawned	11482
mix	11483
climatic	11484
never	11485
immune	11486
mini	11487
sleeves	11488
avoids	11489
riches	11490
shotgun	11491
maintaining	11492
pursue	11493
unlocked	11494
guy	11495
blazing	11496
enlisted	11497
fuji	11498
##lica	11499
hint	11500
cuban	11501
mandatory	11502
romania	11503
hills	11504
caravan	11505
gotten	11506
steward	11507
alley	11508
hardly	11509
waters	11510
iron	11511
nun	11512
ineffective	11513
lakes	11514
steering	11515
doctorate	11516
hollywood	11517
wax	11518
news	11519
sustained	11520
neighbour	11521
outline	11522
partially	11523
christopher	11524
cancel	11525
banged	11526
ticking	11527
lifeboat	11528
paper	11529
ready	11530
##zhou	11531
##tion	11532
##gl	11533
indoor	11534
collecting	11535
chewing	11536
removal	11537
##rt	11538
tribe	11539
motel	11540
cookies	11541
19	11542
spain	11543
restaurant	11544
crows	11545
oneself	11546
paid	11547
skinny	11548
northern	11549
##pu	11550
naughty	11551
english	11552
interact	11553
course	11554
profoundly	11555
##ven	11556
interpret	11557
spoil	11558
journalist	11559
gasoline	11560
measured	11561
nitrogen	11562
smith	11563
hooked	11564
interview	11565
religion	11566
university	11567
rhythm	11568
elephants	11569
suspended	11570
brothers	11571
strangers	11572
starting	11573
mole	11574
become	11575
ti	11576
behaviour	11577
addressed	11578
tossed	11579
innocence	11580
romans	11581
moths	11582
80	11583
##ear	11584
qur	11585
until	11586
dated	11587
treated	11588
spanish	11589
trading	11590
catches	11591
sunny	11592
serial	11593
token	11594
heated	11595
taking	11596
narrows	11597
##tick	11598
beginnings	11599
underwear	11600
commonly	11601
##uming	11602
deserve	11603
periods	11604
groaned	11605
quite	11606
joke	11607
countryside	11608
soothe	11609
tour	11610
kin	11611
matters	11612
iso	11613
ottawa	11614
1980	11615
##ces	11616
personal	11617
buildings	11618
presidential	11619
cheek	11620
suggest	11621
survivors	11622
bases	11623
ph	11624
encore	11625
budge	11626
retiring	11627
saving	11628
ag	11629
marital	11630
failures	11631
##het	11632
surprising	11633
stormy	11634
cheering	11635
paris	11636
irregular	11637
watering	11638
beam	11639
surfer	11640
abilities	11641
lunar	11642
remark	11643
revolves	11644
bradford	11645
hallway	11646
docking	11647
mineral	11648
conscience	11649
robber	11650
##lian	11651
cutting	11652
##los	11653
requests	11654
type	11655
tufts	11656
##op	11657
inspected	11658
ib	11659
boring	11660
repeats	11661
kentucky	11662
pleasure	11663
attribute	11664
subject	11665
miles	11666
eastwood	11667
meanings	11668
##dium	11669
anywhere	11670
situation	11671
nice	11672
apologized	11673
follower	11674
##ly	11675
gallons	11676
thunder	11677
buy	11678
herself	11679
boy	11680
450	11681
ci	11682
drawings	11683
astonishment	11684
through	11685
preserving	11686
sic	11687
##oca	11688
detect	11689
official	11690
##lou	11691
mourning	11692
##holders	11693
swallowing	11694
lines	11695
consciousness	11696
genetically	11697
uncertain	11698
friday	11699
##ishly	11700
ecuador	11701
change	11702
install	11703
waitress	11704
queer	11705
exercise	11706
uno	11707
mer	11708
illustrate	11709
sample	11710
inspect	11711
upon	11712
textbook	11713
sickness	11714
statement	11715
##ira	11716
returned	11717
ind	11718
husband	11719
everywhere	11720
regret	11721
exams	11722
basement	11723
bury	11724
physical	11725
forecast	11726
keep	11727
lightly	11728
originally	11729
gan	11730
los	11731
tracked	11732
communist	11733
incense	11734
keeper	11735
cycling	11736
beating	11737
bother	11738
mor	11739
teeth	11740
##inations	11741
sculptures	11742
contact	11743
layout	11744
##ncies	11745
australians	11746
chairs	11747
eighteenth	11748
##iva	11749
mustard	11750
incredible	11751
##ica	11752
hack	11753
hatch	11754
##lace	11755
th	11756
stealing	11757
grounded	11758
vent	11759
##tp	11760
maybe	11761
ambitious	11762
confidence	11763
##ck	11764
infinitely	11765
ingredients	11766
bound	11767
yes	11768
##agi	11769
##lers	11770
##one	11771
jumper	11772
panting	11773
conversation	11774
##sho	11775
tariff	11776
colombia	11777
##land	11778
muttering	11779
jesuit	11780
since	11781
##ssi	11782
internet	11783
gambling	11784
dizzy	11785
1979	11786
building	11787
##scribe	11788
hungarian	11789
committee	11790
experienced	11791
1985	11792
cared	11793
abused	11794
##cl	11795
intends	11796
healed	11797
##ln	11798
valuable	11799
resolve	11800
perfectly	11801
credit	11802
wr	11803
beneath	11804
##zzled	11805
##oni	11806
point	11807
fireplace	11808
rest	11809
pendant	11810
kyoto	11811
outfit	11812
##pro	11813
glove	11814
celebrations	11815
declining	11816
buck	11817
explore	11818
tak	11819
stadium	11820
bar	11821
istanbul	11822
jack	11823
succession	11824
##fer	11825
volunteers	11826
cart	11827
gem	11828
call	11829
atlanta	11830
lecture	11831
celebration	11832
snowy	11833
pairs	11834
sh	11835
homer	11836
minerals	11837
baffled	11838
casts	11839
vo	11840
eliminated	11841
patio	11842
##ve	11843
##rd	11844
##or	11845
dash	11846
usual	11847
started	11848
snake	11849
stain	11850
camping	11851
bird	11852
gum	11853
greenland	11854
standing	11855
roast	11856
hostel	11857
organic	11858
draws	11859
thanking	11860
containers	11861
largest	11862
nonstop	11863
##stered	11864
##bit	11865
fundraiser	11866
seize	11867
consuming	11868
handle	11869
whimper	11870
neck	11871
factory	11872
consulted	11873
bass	11874
##rum	11875
collapsing	11876
dare	11877
principal	11878
##47	11879
draw	11880
capt	11881
spicy	11882
pod	11883
antibodies	11884
honored	11885
bled	11886
exhausted	11887
diplomat	11888
##sit	11889
brake	11890
64	11891
meat	11892
training	11893
ill	11894
contaminated	11895
ins	11896
grandparents	11897
packed	11898
sorority	11899
interfering	11900
##ees	11901
1806	11902
hire	11903
##ins	11904
already	11905
emphasized	11906
disguised	11907
status	11908
blades	11909
car	11910
guinea	11911
mess	11912
waking	11913
poland	11914
##ement	11915
painters	11916
custom	11917
denounced	11918
plan	11919
pronunciation	11920
italy	11921
memorable	11922
surprises	11923
deeply	11924
temporary	11925
i	11926
moist	11927
rei	11928
rec	11929
the	11930
handled	11931
lion	11932
conquest	11933
nt	11934
absorbed	11935
hearts	11936
publisher	11937
bin	11938
later	11939
situations	11940
payments	11941
##ates	11942
agency	11943
proceeding	11944
1830	11945
leaped	11946
policies	11947
fished	11948
broadly	11949
##ke	11950
##ano	11951
##rred	11952
inaugural	11953
transformed	11954
sun	11955
ali	11956
tower	11957
screaming	11958
return	11959
delivers	11960
containing	11961
pointer	11962
huddled	11963
dried	11964
flexible	11965
##word	11966
manager	11967
easily	11968
ammunition	11969
unfortunately	11970
consists	11971
inc	11972
external	11973
fallen	11974
##aro	11975
ref	11976
cozy	11977
##wig	11978
answered	11979
##ned	11980
face	11981
streetcar	11982
z	11983
london	11984
weakly	11985
totaled	11986
friends	11987
waved	11988
small	11989
branched	11990
arrival	11991
##izing	11992
encountered	11993
sponsor	11994
comedies	11995
kilometers	11996
##far	11997
1860	11998
interests	11999
math	12000
##has	12001
dazed	12002
##onne	12003
parody	12004
30	12005
fired	12006
believed	12007
author	12008
shoot	12009
criticism	12010
geography	12011
##dling	12012
knife	12013
emerged	12014
fluent	12015
order	12016
##till	12017
embraced	12018
mri	12019
##les	12020
finish	12021
bearded	12022
clouds	12023
interrupting	12024
##frey	12025
printing	12026
##ure	12027
address	12028
calculus	12029
##graphs	12030
##gi	12031
deported	12032
gonna	12033
state	12034
repaired	12035
sumo	12036
chuck	12037
jets	12038
updates	12039
multi	12040
##po	12041
##bbled	12042
hideous	12043
click	12044
european	12045
calendar	12046
gogh	12047
graduating	12048
##iv	12049
barefoot	12050
med	12051
##press	12052
toe	12053
fin	12054
patient	12055
indicate	12056
hang	12057
germans	12058
depart	12059
cl	12060
picks	12061
seconds	12062
memo	12063
economists	12064
##den	12065
##ops	12066
##tors	12067
chiefly	12068
increasing	12069
jokes	12070
quick	12071
textbooks	12072
doubts	12073
amassed	12074
confirmed	12075
experiment	12076
ceiling	12077
hornets	12078
radio	12079
distract	12080
questioned	12081
millionaire	12082
pool	12083
regards	12084
recognize	12085
pumped	12086
exercised	12087
receive	12088
tricky	12089
appendix	12090
italians	12091
musicians	12092
precise	12093
##cus	12094
aback	12095
bluff	12096
engaged	12097
functions	12098
lemon	12099
threats	12100
##mp	12101
apologies	12102
1st	12103
razor	12104
##away	12105
symphonies	12106
disabilities	12107
piano	12108
##st	12109
noble	12110
spray	12111
engine	12112
crocodile	12113
tensions	12114
##ible	12115
provide	12116
vegetable	12117
pu	12118
extreme	12119
chapters	12120
customary	12121
dairy	12122
restless	12123
puff	12124
smiled	12125
urged	12126
campus	12127
encounter	12128
overcame	12129
steered	12130
aw	12131
pretty	12132
##ora	12133
##pack	12134
thomas	12135
missing	12136
loyalty	12137
enrolled	12138
arise	12139
miracle	12140
##rand	12141
africa	12142
easter	12143
infinite	12144
tidy	12145
ends	12146
separate	12147
blonde	12148
andes	12149
example	12150
##ty	12151
nationality	12152
cash	12153
halfway	12154
witnesses	12155
##tive	12156
railroads	12157
dyed	12158
between	12159
investment	12160
##act	12161
instructions	12162
signals	12163
flute	12164
charm	12165
parrot	12166
pardon	12167
ki	12168
blacks	12169
recession	12170
mexican	12171
photograph	12172
stimulation	12173
##opa	12174
entered	12175
sway	12176
standards	12177
preparing	12178
##fin	12179
role	12180
toll	12181
violated	12182
napoleon	12183
handsome	12184
recent	12185
blank	12186
##rce	12187
unpleasant	12188
baritone	12189
free	12190
anthropologist	12191
tom	12192
teresa	12193
contestant	12194
##bell	12195
##ers	12196
killing	12197
recycled	12198
ave	12199
running	12200
##ila	12201
fridays	12202
spouse	12203
lining	12204
balance	12205
7	12206
##pic	12207
confirmation	12208
hostages	12209
molecule	12210
influential	12211
virus	12212
seeking	12213
tapped	12214
urgency	12215
donated	12216
gulp	12217
##hini	12218
catalog	12219
##rac	12220
moscow	12221
weekend	12222
physicist	12223
shooting	12224
cycle	12225
commerce	12226
##ster	12227
kidney	12228
sticks	12229
milky	12230
greed	12231
intuitive	12232
recover	12233
writes	12234
resource	12235
##zzle	12236
himself	12237
tune	12238
boiling	12239
min	12240
dealing	12241
finely	12242
helmet	12243
uniform	12244
fears	12245
tunes	12246
rome	12247
mass	12248
