SOS	0
EOS	1
hugged	2
fourteen	3
stream	4
ranges	5
happened	6
traditionally	7
shoes	8
vaccine	9
indies	10
##com	11
trusting	12
bladder	13
ku	14
flaw	15
risked	16
##ical	17
cds	18
growling	19
nationality	20
belong	21
lonely	22
mustard	23
conform	24
chemistry	25
board	26
cameras	27
unbearable	28
wolves	29
butt	30
whistled	31
died	32
balloon	33
arrogance	34
##pon	35
decorate	36
normally	37
detector	38
##mount	39
seasoned	40
##iz	41
##ie	42
kingdom	43
immense	44
suspicions	45
frequently	46
remix	47
chords	48
brasil	49
##umble	50
discover	51
extracted	52
mit	53
suppose	54
minister	55
##ins	56
bomb	57
##vat	58
##gle	59
##athlon	60
senator	61
counties	62
##ade	63
dove	64
meditation	65
renovated	66
egypt	67
pubs	68
atmosphere	69
guaranteed	70
thrilling	71
outs	72
whenever	73
grew	74
shortage	75
hal	76
blinking	77
advocate	78
sits	79
breakfast	80
pear	81
millionaire	82
sling	83
jupiter	84
##tized	85
furthermore	86
illegally	87
oven	88
##ors	89
korea	90
150	91
carry	92
##uttered	93
liberty	94
electric	95
torre	96
##mism	97
1947	98
wai	99
oil	100
remark	101
comrades	102
implements	103
murderer	104
skills	105
emptied	106
cookies	107
owes	108
valet	109
##hus	110
surround	111
antibodies	112
am	113
##cit	114
interpreted	115
sip	116
2003	117
undefeated	118
remedy	119
peas	120
prolonged	121
suggesting	122
lunch	123
tuesday	124
93	125
remembers	126
photographer	127
suspect	128
concentration	129
##ently	130
way	131
engine	132
unsure	133
website	134
behaviour	135
clover	136
##sty	137
orient	138
##resh	139
tested	140
labor	141
strangers	142
excursion	143
technology	144
million	145
##rier	146
editorial	147
##tes	148
basel	149
received	150
finished	151
butter	152
understands	153
qu	154
peruvian	155
appearance	156
whisky	157
audience	158
ceo	159
jail	160
action	161
rhythm	162
microwave	163
suggest	164
greasy	165
dust	166
##to	167
timer	168
##ti	169
dual	170
guitars	171
power	172
fundamental	173
whether	174
shepherd	175
childish	176
affection	177
walked	178
noon	179
charging	180
##d	181
skate	182
imports	183
skipping	184
cafe	185
##while	186
##ments	187
underwater	188
joints	189
boiled	190
bushes	191
database	192
scenario	193
outcome	194
flee	195
ammunition	196
lent	197
sweaty	198
connecting	199
resented	200
nickname	201
explains	202
badge	203
curiosity	204
practiced	205
heroine	206
penetrating	207
sleep	208
##ws	209
planner	210
blew	211
procedure	212
48	213
cats	214
east	215
beers	216
aground	217
seven	218
opposed	219
complaint	220
ozone	221
suit	222
hurried	223
crying	224
congratulations	225
protein	226
funds	227
resolution	228
today	229
spicy	230
jay	231
winced	232
skilled	233
reduced	234
harp	235
##trum	236
kindergarten	237
describes	238
hurry	239
sk	240
geneva	241
##ged	242
listen	243
gray	244
chances	245
failing	246
diplomacy	247
branched	248
demonstrators	249
fitzgerald	250
##oot	251
beatles	252
systems	253
author	254
##ting	255
relatively	256
##itt	257
organized	258
reforms	259
cardiac	260
paranormal	261
danger	262
perform	263
waitress	264
license	265
entertained	266
##sper	267
##rc	268
stu	269
existing	270
naturally	271
means	272
meaningful	273
jets	274
familiar	275
environment	276
survive	277
ta	278
fingers	279
##an	280
bathroom	281
heat	282
botany	283
spur	284
peace	285
arabic	286
longest	287
viruses	288
bradford	289
captain	290
bandit	291
loser	292
##ff	293
gym	294
##bbled	295
satisfaction	296
deals	297
contain	298
##ded	299
logs	300
acoustic	301
trusted	302
spends	303
marches	304
compromised	305
insist	306
##cated	307
under	308
##llo	309
up	310
##cting	311
col	312
hearted	313
skiing	314
grave	315
bag	316
totally	317
##ulsive	318
exceptionally	319
mirror	320
ch	321
habitat	322
batter	323
preceding	324
less	325
notebook	326
contents	327
##hr	328
##ui	329
infected	330
##rogated	331
isn	332
translator	333
historians	334
sank	335
loading	336
instrument	337
suspicion	338
yard	339
drawn	340
career	341
iced	342
widen	343
colombian	344
circumstances	345
advances	346
##naire	347
##roids	348
folk	349
sustain	350
occur	351
alike	352
placed	353
##tyle	354
##oping	355
merchant	356
making	357
state	358
towards	359
following	360
70	361
fixed	362
horizons	363
games	364
gotten	365
condition	366
fright	367
isolated	368
uno	369
optical	370
influenced	371
chopin	372
groups	373
##dock	374
tolerant	375
riches	376
draw	377
fantastic	378
convincing	379
signals	380
fences	381
spontaneously	382
draft	383
global	384
stands	385
fukuoka	386
passionate	387
what	388
tremor	389
zu	390
scotland	391
lifted	392
##fire	393
verdict	394
bucks	395
admiral	396
harbor	397
butterfly	398
inventory	399
frost	400
indo	401
chicago	402
orphan	403
admired	404
week	405
leaks	406
saving	407
41	408
thomas	409
##os	410
barked	411
mayor	412
dog	413
declaration	414
courthouse	415
characters	416
resign	417
wiring	418
sets	419
gorge	420
stronger	421
wig	422
outgoing	423
##ache	424
##gled	425
reporters	426
prizes	427
##hre	428
##ops	429
occasion	430
hungary	431
inserted	432
execution	433
##inations	434
feathers	435
##bic	436
ne	437
##ees	438
appeal	439
bas	440
craft	441
manual	442
nightingale	443
petition	444
rent	445
shocked	446
124	447
regained	448
##age	449
madly	450
##ote	451
politician	452
belonged	453
fatal	454
confirm	455
thoughts	456
currently	457
57	458
##ab	459
nineteenth	460
scholar	461
calming	462
flew	463
##suit	464
##cards	465
biased	466
exasperated	467
innovation	468
cuba	469
written	470
agree	471
##mate	472
stainless	473
larger	474
critic	475
costume	476
sacrificed	477
entirely	478
panicked	479
equivalent	480
experiment	481
foreman	482
##par	483
##ndo	484
tiger	485
irish	486
instantly	487
towns	488
genius	489
anything	490
##shed	491
n	492
constitution	493
superiors	494
extravagant	495
excelled	496
probable	497
##ora	498
dances	499
such	500
dried	501
cock	502
freely	503
tucked	504
bamboo	505
manipulated	506
gift	507
bartender	508
kin	509
brushing	510
rapid	511
france	512
1920s	513
architectural	514
gathering	515
architecture	516
my	517
##rew	518
causing	519
handful	520
next	521
poisoning	522
similar	523
starts	524
amateur	525
surfer	526
ag	527
mourning	528
discussion	529
##fixed	530
increase	531
robbed	532
seem	533
troubled	534
##ssed	535
each	536
recalling	537
syllables	538
contacts	539
solved	540
tactic	541
packets	542
##ori	543
mel	544
chain	545
wine	546
##ves	547
selfish	548
tragedy	549
scholarship	550
lions	551
hi	552
encourages	553
##real	554
bright	555
##dad	556
1960	557
##ner	558
##tze	559
inter	560
bore	561
alto	562
##war	563
banged	564
pistol	565
alarmed	566
label	567
export	568
dem	569
##gles	570
busy	571
rumors	572
lac	573
merely	574
joined	575
blink	576
troubles	577
pantry	578
##ani	579
japanese	580
##tered	581
relaxing	582
negotiate	583
vet	584
accusation	585
ingredient	586
heating	587
speedy	588
survived	589
traumatic	590
celebrity	591
##bed	592
mischievous	593
acquaintances	594
broadway	595
leaving	596
cassette	597
##ah	598
bought	599
ex	600
goodness	601
sessions	602
remains	603
##ili	604
depends	605
baking	606
##th	607
patch	608
archer	609
climbed	610
battle	611
bubble	612
nick	613
stalls	614
stock	615
osaka	616
opposite	617
gogh	618
blocking	619
mood	620
happening	621
tribe	622
cellar	623
slap	624
corners	625
piano	626
conscious	627
unexpected	628
##fighting	629
poor	630
overcome	631
70th	632
posed	633
auto	634
nineteen	635
spoken	636
performing	637
fighting	638
primitive	639
conspiracy	640
hoping	641
sight	642
deserved	643
mig	644
##nished	645
apprentice	646
volumes	647
clothed	648
##win	649
##shing	650
dorchester	651
exploring	652
beneath	653
coached	654
##ency	655
their	656
##pro	657
apron	658
##elt	659
minors	660
hermitage	661
urgency	662
1974	663
employ	664
prop	665
none	666
chained	667
silence	668
executed	669
##ser	670
represented	671
grounds	672
locker	673
me	674
commotion	675
symbol	676
modest	677
straightforward	678
effects	679
##burn	680
lodge	681
bearer	682
apple	683
crews	684
##der	685
##cor	686
##ager	687
##mist	688
italy	689
sleeping	690
ought	691
face	692
speaker	693
markings	694
gr	695
upbringing	696
##cked	697
psycho	698
dwelling	699
cobra	700
returning	701
##hin	702
endowed	703
ruler	704
##ton	705
switzerland	706
corporation	707
dramatically	708
underwood	709
transmit	710
barge	711
greet	712
##cas	713
##iv	714
sexual	715
grounded	716
hammering	717
comics	718
include	719
acquisition	720
earned	721
stormed	722
essential	723
repeatedly	724
inspected	725
favor	726
overcame	727
reduction	728
frequent	729
##ih	730
nodded	731
aircraft	732
valid	733
##pone	734
majority	735
1806	736
kilograms	737
tom	738
photo	739
cocaine	740
productive	741
cuffs	742
preserving	743
political	744
gears	745
cared	746
relativity	747
sings	748
edinburgh	749
groceries	750
##oc	751
conventional	752
##ttle	753
##ox	754
apt	755
punched	756
robbery	757
##tp	758
##nh	759
improving	760
short	761
weasel	762
endurance	763
relying	764
uniform	765
soon	766
cutting	767
marketing	768
history	769
graduation	770
countless	771
##overs	772
##ance	773
dilemma	774
et	775
entertaining	776
contract	777
rene	778
##ara	779
gaining	780
highlighted	781
exceeds	782
tin	783
represent	784
combined	785
##how	786
reigned	787
assumed	788
prophet	789
continually	790
contributing	791
##pr	792
impulse	793
textbooks	794
collapsing	795
adapted	796
breaths	797
await	798
option	799
reaction	800
##oked	801
civic	802
whatever	803
unrest	804
filled	805
##cast	806
mu	807
intimate	808
affair	809
designate	810
rooted	811
mining	812
wore	813
tightened	814
cultural	815
blockade	816
principal	817
educate	818
would	819
hygiene	820
cuts	821
advertising	822
changed	823
expressway	824
puzzled	825
qualification	826
catalogue	827
##app	828
promoting	829
believed	830
lake	831
benefits	832
experiences	833
implicated	834
brushed	835
ambassador	836
peer	837
virtue	838
##wheel	839
heartbeat	840
practical	841
eliminated	842
canoe	843
rely	844
curve	845
projects	846
45	847
attorney	848
girls	849
sir	850
losing	851
155	852
shifting	853
thousands	854
hit	855
tighten	856
achievement	857
thumbs	858
standing	859
advisory	860
arch	861
vehicle	862
o	863
come	864
mean	865
nurses	866
commune	867
laced	868
margin	869
chin	870
lad	871
inspiration	872
severely	873
cast	874
frustrated	875
appealing	876
toy	877
hands	878
deported	879
##ener	880
viral	881
accidents	882
evident	883
hideous	884
undergo	885
horribly	886
czech	887
junior	888
##ota	889
hum	890
sy	891
oddly	892
fide	893
2012	894
mini	895
basil	896
vary	897
brew	898
##rise	899
delays	900
balance	901
##con	902
abdominal	903
seems	904
pilots	905
whip	906
analyst	907
averaged	908
gravel	909
previous	910
assumption	911
grief	912
rank	913
trip	914
noticed	915
tight	916
diseases	917
excited	918
traps	919
already	920
belts	921
encore	922
carrot	923
knows	924
frightened	925
yearbook	926
probably	927
owned	928
b	929
awoke	930
greater	931
ranking	932
cara	933
shin	934
square	935
##fed	936
hazard	937
kitten	938
int	939
governor	940
##lar	941
sold	942
soviet	943
check	944
flat	945
weakness	946
countered	947
registers	948
##rian	949
warmly	950
knelt	951
emotion	952
pro	953
related	954
hold	955
occurrence	956
transmitted	957
cheap	958
families	959
exercising	960
amnesty	961
successes	962
states	963
ballistic	964
unnoticed	965
1979	966
##ally	967
combine	968
safe	969
woods	970
importance	971
knob	972
kissed	973
pet	974
reality	975
doo	976
limitations	977
discount	978
##lit	979
hunger	980
flap	981
generation	982
##aint	983
intense	984
forgive	985
ca	986
harry	987
party	988
principle	989
animal	990
ours	991
200	992
##che	993
nobody	994
perhaps	995
consistent	996
vomiting	997
reporter	998
downing	999
renew	1000
accepting	1001
product	1002
roasted	1003
##id	1004
peel	1005
reptiles	1006
promoted	1007
tow	1008
october	1009
shade	1010
has	1011
##room	1012
sheer	1013
worship	1014
dripping	1015
regarded	1016
resembles	1017
##lot	1018
star	1019
nouns	1020
spiritual	1021
content	1022
significantly	1023
using	1024
response	1025
frozen	1026
wasn	1027
patient	1028
sample	1029
yu	1030
explain	1031
##ience	1032
trace	1033
generate	1034
##rit	1035
unarmed	1036
remaining	1037
migrate	1038
##lip	1039
van	1040
terri	1041
hinted	1042
bart	1043
##umber	1044
stink	1045
potatoes	1046
decide	1047
blend	1048
miserable	1049
##ost	1050
##arium	1051
mary	1052
za	1053
##rud	1054
personally	1055
disappearing	1056
tracked	1057
exchange	1058
##achi	1059
surprises	1060
21st	1061
drastically	1062
om	1063
boiling	1064
outlaw	1065
arts	1066
exaggerated	1067
moments	1068
##keeper	1069
slit	1070
devastated	1071
cheeks	1072
interior	1073
advised	1074
minorities	1075
beat	1076
also	1077
cleopatra	1078
viva	1079
##30	1080
computer	1081
almost	1082
dipped	1083
##oga	1084
gus	1085
socialist	1086
peacefully	1087
expired	1088
##turing	1089
sakura	1090
misunderstood	1091
usa	1092
english	1093
1977	1094
evolved	1095
movies	1096
welcomed	1097
wreck	1098
functional	1099
secrets	1100
bend	1101
warrant	1102
gas	1103
fur	1104
bar	1105
everyday	1106
myself	1107
fallen	1108
fellow	1109
incense	1110
loop	1111
perfectly	1112
industries	1113
neck	1114
swat	1115
tooth	1116
district	1117
unit	1118
##our	1119
higher	1120
burned	1121
scene	1122
lighter	1123
youtube	1124
spying	1125
visitors	1126
##city	1127
sheet	1128
erected	1129
##ked	1130
airplane	1131
##tral	1132
reunion	1133
purpose	1134
sophomore	1135
suppliers	1136
emigrated	1137
calvin	1138
australia	1139
firearms	1140
##tra	1141
light	1142
authors	1143
tricky	1144
##oso	1145
vodka	1146
cigarettes	1147
invisible	1148
rose	1149
lens	1150
call	1151
arrive	1152
path	1153
justify	1154
minsk	1155
dai	1156
needed	1157
castle	1158
valentine	1159
allowing	1160
unlike	1161
salsa	1162
began	1163
carefully	1164
economy	1165
cuban	1166
##stered	1167
easter	1168
surroundings	1169
listening	1170
intelligence	1171
mastered	1172
altogether	1173
##lk	1174
ronald	1175
things	1176
acres	1177
legitimate	1178
budapest	1179
##ago	1180
ph	1181
putting	1182
##va	1183
##erty	1184
maternity	1185
direction	1186
dread	1187
##inal	1188
honest	1189
brazil	1190
childbirth	1191
finishing	1192
college	1193
imagined	1194
vacant	1195
reserved	1196
wealthy	1197
oct	1198
calling	1199
missing	1200
##genic	1201
sensed	1202
noisy	1203
tre	1204
ones	1205
note	1206
1732	1207
fathers	1208
comb	1209
standards	1210
groan	1211
invented	1212
##ums	1213
kentucky	1214
sickness	1215
##llar	1216
gestures	1217
##isto	1218
guarantees	1219
outdoor	1220
replace	1221
mere	1222
broken	1223
1863	1224
gall	1225
behavior	1226
peck	1227
slapped	1228
swap	1229
##cchi	1230
knew	1231
##ren	1232
clipped	1233
literally	1234
##et	1235
##ute	1236
##house	1237
huddled	1238
burden	1239
smiles	1240
disaster	1241
##hab	1242
know	1243
screens	1244
##ali	1245
clubs	1246
cello	1247
for	1248
##que	1249
delivers	1250
##pot	1251
write	1252
applying	1253
minimum	1254
fridays	1255
exists	1256
lifting	1257
hours	1258
weaker	1259
meant	1260
withdraw	1261
fight	1262
kindly	1263
tres	1264
favorites	1265
harassment	1266
elevators	1267
hive	1268
activities	1269
did	1270
singer	1271
leeds	1272
veterans	1273
pendant	1274
discussed	1275
seine	1276
sworn	1277
services	1278
entry	1279
require	1280
##oy	1281
mas	1282
tutor	1283
distorted	1284
hearing	1285
successive	1286
##unk	1287
spotlight	1288
unsafe	1289
youth	1290
mediterranean	1291
##lated	1292
knife	1293
chief	1294
training	1295
##stic	1296
casts	1297
upcoming	1298
balanced	1299
invasion	1300
fell	1301
pub	1302
##sma	1303
home	1304
squeeze	1305
saints	1306
drawers	1307
grandparents	1308
viewed	1309
8th	1310
trivial	1311
embarrassing	1312
ages	1313
supernatural	1314
use	1315
organic	1316
azerbaijani	1317
bumped	1318
options	1319
embarrassment	1320
will	1321
washing	1322
slate	1323
vocabulary	1324
alcoholic	1325
anatomy	1326
lieutenant	1327
doctorate	1328
weekly	1329
dull	1330
suicide	1331
applies	1332
peter	1333
unconventional	1334
##hosis	1335
girlfriends	1336
piracy	1337
tingle	1338
soft	1339
mine	1340
noise	1341
##unda	1342
planning	1343
blade	1344
grandchildren	1345
substantial	1346
admitted	1347
snoop	1348
perfect	1349
waving	1350
flying	1351
cigarette	1352
caps	1353
seek	1354
melody	1355
flute	1356
freedom	1357
transcript	1358
##ness	1359
abstract	1360
immediate	1361
##unce	1362
complain	1363
##vers	1364
wand	1365
accidentally	1366
penn	1367
considerably	1368
holds	1369
introducing	1370
teaser	1371
janeiro	1372
antibiotics	1373
friendships	1374
k	1375
gui	1376
mouths	1377
fender	1378
##ring	1379
notion	1380
serves	1381
modern	1382
voters	1383
psychiatrist	1384
mask	1385
resolved	1386
knitting	1387
norman	1388
##per	1389
permits	1390
dump	1391
##igen	1392
friendly	1393
##lli	1394
scrap	1395
abandoning	1396
males	1397
profit	1398
nightfall	1399
ached	1400
difficulty	1401
verify	1402
arm	1403
powers	1404
telegram	1405
stamp	1406
catches	1407
obliged	1408
companies	1409
chicks	1410
discovered	1411
##vable	1412
deteriorating	1413
##iard	1414
leaking	1415
withdrew	1416
winners	1417
##aged	1418
scenic	1419
jaws	1420
##pired	1421
panama	1422
tex	1423
item	1424
##ammed	1425
cigar	1426
delay	1427
didn	1428
##jet	1429
##flower	1430
polls	1431
willingly	1432
shelves	1433
bud	1434
comprehensive	1435
like	1436
##pp	1437
chip	1438
##sin	1439
stature	1440
lips	1441
jar	1442
##had	1443
##a	1444
1973	1445
bottle	1446
testament	1447
5th	1448
reporting	1449
continual	1450
##able	1451
lab	1452
ceiling	1453
##nsed	1454
diving	1455
inevitable	1456
cops	1457
##ider	1458
suitcase	1459
departing	1460
nearest	1461
talents	1462
congressman	1463
architect	1464
yields	1465
real	1466
##ada	1467
needs	1468
unlawful	1469
eyed	1470
chocolate	1471
funding	1472
blazing	1473
forbid	1474
ample	1475
thanks	1476
wit	1477
impression	1478
fierce	1479
simple	1480
verb	1481
heading	1482
elbow	1483
auction	1484
aggression	1485
##akes	1486
prick	1487
acceptable	1488
wages	1489
##athi	1490
fed	1491
cheered	1492
opponent	1493
technique	1494
arrests	1495
yelling	1496
begins	1497
sing	1498
##cies	1499
marks	1500
contra	1501
farmer	1502
luna	1503
credible	1504
##ry	1505
bookstore	1506
upside	1507
stretched	1508
curtains	1509
##art	1510
violent	1511
saddle	1512
greenhouse	1513
lover	1514
perfection	1515
scandal	1516
doctrine	1517
slice	1518
colonel	1519
arched	1520
altitude	1521
##tly	1522
hardwood	1523
glued	1524
ki	1525
battalions	1526
instruments	1527
iran	1528
welfare	1529
outnumbered	1530
tenants	1531
biologist	1532
cushions	1533
##tch	1534
classroom	1535
##aca	1536
ipod	1537
shrine	1538
incident	1539
unaware	1540
25th	1541
teaching	1542
declined	1543
##dge	1544
cooked	1545
must	1546
malicious	1547
garbage	1548
work	1549
referring	1550
cooperation	1551
fence	1552
boo	1553
trimmed	1554
dig	1555
files	1556
coherent	1557
camping	1558
all	1559
oppose	1560
prefecture	1561
##iful	1562
reflex	1563
truck	1564
beast	1565
1998	1566
secured	1567
likelihood	1568
bullet	1569
flag	1570
##tor	1571
##bbly	1572
##amo	1573
destined	1574
##gee	1575
##lling	1576
##ip	1577
lacks	1578
super	1579
##mpt	1580
acknowledges	1581
useful	1582
variety	1583
confusing	1584
russia	1585
##mission	1586
fully	1587
quote	1588
wrestler	1589
blushing	1590
finances	1591
demand	1592
rag	1593
##rled	1594
1912	1595
ignition	1596
school	1597
theaters	1598
medals	1599
chilly	1600
exams	1601
##old	1602
anarchy	1603
badger	1604
publicity	1605
office	1606
asteroids	1607
ethics	1608
adorable	1609
temptation	1610
scales	1611
volunteered	1612
##fies	1613
participates	1614
ancestors	1615
churchill	1616
regardless	1617
whales	1618
signing	1619
sentenced	1620
realistic	1621
widespread	1622
honeymoon	1623
singled	1624
robbers	1625
senses	1626
denial	1627
adjust	1628
shook	1629
ark	1630
quickly	1631
laws	1632
tours	1633
murders	1634
succeed	1635
hasty	1636
something	1637
hawk	1638
melted	1639
explicit	1640
danced	1641
fringe	1642
##np	1643
bread	1644
owing	1645
fascinating	1646
casinos	1647
span	1648
##ype	1649
american	1650
depended	1651
blizzard	1652
pleasure	1653
moan	1654
registration	1655
eve	1656
instructor	1657
swollen	1658
martini	1659
##amp	1660
stunning	1661
commerce	1662
##het	1663
##ila	1664
rob	1665
who	1666
temper	1667
rowing	1668
characterized	1669
scenery	1670
logical	1671
greed	1672
departure	1673
promotion	1674
meals	1675
applicants	1676
international	1677
plains	1678
crooked	1679
depth	1680
begun	1681
kills	1682
slope	1683
shuffle	1684
korean	1685
##zaki	1686
comprehension	1687
operates	1688
morning	1689
fe	1690
ignore	1691
improved	1692
sipped	1693
peaceful	1694
wouldn	1695
private	1696
helen	1697
emphasized	1698
sauce	1699
##hole	1700
newly	1701
siblings	1702
shark	1703
##lb	1704
scattered	1705
seeded	1706
could	1707
anytime	1708
typhoon	1709
numbers	1710
cameo	1711
##wood	1712
##active	1713
grab	1714
anxious	1715
nudged	1716
collected	1717
tomatoes	1718
spoil	1719
teresa	1720
cried	1721
begged	1722
anxiously	1723
hong	1724
customer	1725
buying	1726
demoted	1727
coincidence	1728
uncles	1729
vo	1730
ami	1731
worldwide	1732
shares	1733
cooking	1734
motionless	1735
updated	1736
propose	1737
lime	1738
upset	1739
crook	1740
##iente	1741
rotating	1742
##lu	1743
unacceptable	1744
fu	1745
couch	1746
patrol	1747
engagement	1748
faint	1749
dreadful	1750
medical	1751
fitting	1752
##ners	1753
##im	1754
##gl	1755
##maker	1756
##is	1757
nervous	1758
famine	1759
expert	1760
texans	1761
pedestal	1762
##hi	1763
falsely	1764
dame	1765
enforce	1766
abroad	1767
macintosh	1768
##pol	1769
asa	1770
discretion	1771
spending	1772
shoreline	1773
nu	1774
segregation	1775
fertile	1776
space	1777
isolation	1778
epic	1779
sinking	1780
chi	1781
equal	1782
##ven	1783
##ogen	1784
researcher	1785
##load	1786
invest	1787
corpus	1788
supervising	1789
test	1790
adequate	1791
open	1792
carrying	1793
moonlight	1794
shelf	1795
swimmers	1796
mer	1797
##gil	1798
tend	1799
interrupting	1800
duties	1801
racist	1802
sis	1803
##tails	1804
pest	1805
displayed	1806
##ps	1807
microsoft	1808
sul	1809
forks	1810
shutting	1811
collar	1812
cheers	1813
psychology	1814
nevada	1815
pharmacy	1816
600	1817
concentrated	1818
bids	1819
95	1820
prison	1821
suggests	1822
##ele	1823
campus	1824
pepper	1825
conferences	1826
mistakenly	1827
gains	1828
gases	1829
##ys	1830
absurd	1831
tomorrow	1832
unconscious	1833
mandela	1834
temporary	1835
1865	1836
paul	1837
sixty	1838
feminine	1839
caring	1840
abortion	1841
flush	1842
visited	1843
contest	1844
drank	1845
##watch	1846
politically	1847
pressure	1848
##ini	1849
attempting	1850
atlantic	1851
##ope	1852
borrow	1853
amp	1854
outrageous	1855
missile	1856
provided	1857
bach	1858
steered	1859
##4	1860
inflation	1861
din	1862
##wn	1863
non	1864
threatening	1865
affairs	1866
expose	1867
generally	1868
rewarded	1869
legs	1870
tv	1871
avenue	1872
phil	1873
survivors	1874
praise	1875
democrat	1876
reassured	1877
##zzling	1878
##anger	1879
sunk	1880
authorization	1881
roses	1882
khalifa	1883
too	1884
weaknesses	1885
sites	1886
worn	1887
unwilling	1888
whispering	1889
certificate	1890
mi	1891
torn	1892
individuals	1893
intended	1894
cotton	1895
##ite	1896
##kie	1897
honored	1898
corresponding	1899
moat	1900
vitamin	1901
unlikely	1902
##we	1903
torpedo	1904
##gizing	1905
sunset	1906
admitting	1907
cloth	1908
removal	1909
scrolling	1910
lemon	1911
noodles	1912
coin	1913
capital	1914
reducing	1915
sue	1916
practicing	1917
programmers	1918
29	1919
stroll	1920
responding	1921
say	1922
tried	1923
hazardous	1924
##aru	1925
rod	1926
tricks	1927
##itor	1928
grasp	1929
emphasize	1930
coming	1931
fines	1932
trust	1933
smoke	1934
paddle	1935
radios	1936
offspring	1937
bias	1938
messed	1939
##ght	1940
green	1941
climbing	1942
cairo	1943
##ats	1944
##ram	1945
offensive	1946
courageous	1947
haven	1948
##oth	1949
mondays	1950
rabbit	1951
deadly	1952
##tute	1953
cents	1954
song	1955
registered	1956
deficit	1957
edge	1958
##eck	1959
honorable	1960
##iating	1961
support	1962
##cable	1963
applause	1964
thesis	1965
gear	1966
totaled	1967
aimed	1968
follow	1969
spitting	1970
groom	1971
patents	1972
raining	1973
them	1974
hometown	1975
thai	1976
##nable	1977
manufacturer	1978
sliding	1979
hub	1980
fluorescent	1981
devote	1982
malaria	1983
juvenile	1984
ind	1985
roughly	1986
substituted	1987
solitary	1988
unexpectedly	1989
scores	1990
manhattan	1991
april	1992
stare	1993
gently	1994
shipping	1995
scar	1996
angola	1997
bottles	1998
gazing	1999
second	2000
wing	2001
along	2002
137	2003
satellite	2004
filthy	2005
angeles	2006
manages	2007
taste	2008
injected	2009
musician	2010
horses	2011
kit	2012
investigation	2013
string	2014
recipe	2015
collaborators	2016
walking	2017
chiba	2018
influenza	2019
##flies	2020
##ange	2021
orange	2022
improve	2023
preschool	2024
landing	2025
alps	2026
hers	2027
confessed	2028
wandering	2029
##dget	2030
learn	2031
##izes	2032
kings	2033
closest	2034
##lat	2035
celebrations	2036
winner	2037
micro	2038
restrictions	2039
##hot	2040
data	2041
lay	2042
##ger	2043
sculptures	2044
finalized	2045
moderately	2046
deliberately	2047
actresses	2048
##hill	2049
##stead	2050
throw	2051
grade	2052
##ddling	2053
babe	2054
froze	2055
seeing	2056
necessary	2057
acute	2058
armstrong	2059
spared	2060
rowe	2061
antarctic	2062
texas	2063
slab	2064
lame	2065
lit	2066
tor	2067
##ddle	2068
ai	2069
calls	2070
##ha	2071
preparing	2072
keeping	2073
##vie	2074
##bbed	2075
sec	2076
##sies	2077
poly	2078
physics	2079
goods	2080
elementary	2081
offers	2082
sweat	2083
information	2084
float	2085
kite	2086
##men	2087
dating	2088
tram	2089
judged	2090
left	2091
frustration	2092
clapped	2093
chickens	2094
timed	2095
treatments	2096
estimated	2097
reluctantly	2098
smiling	2099
eats	2100
mis	2101
squirrels	2102
own	2103
##way	2104
differences	2105
reluctance	2106
species	2107
enjoyment	2108
dialed	2109
pre	2110
##nted	2111
pushes	2112
dipping	2113
seminar	2114
area	2115
receipt	2116
##li	2117
hunter	2118
softened	2119
freelance	2120
squad	2121
temporarily	2122
measured	2123
concert	2124
biology	2125
tad	2126
escalated	2127
amused	2128
fled	2129
treating	2130
##uating	2131
confronted	2132
independent	2133
##sser	2134
dusty	2135
3	2136
retiring	2137
doesn	2138
##nated	2139
engaged	2140
##hiff	2141
minogue	2142
disagreed	2143
quakers	2144
furnished	2145
squirrel	2146
grandmother	2147
##uation	2148
classified	2149
reflects	2150
##fer	2151
festivals	2152
considered	2153
promise	2154
promote	2155
newcomer	2156
bicycle	2157
factory	2158
later	2159
bulk	2160
christmas	2161
verge	2162
skinned	2163
confident	2164
ship	2165
cherry	2166
##rating	2167
bed	2168
##lete	2169
monitored	2170
lunatic	2171
equals	2172
insulin	2173
##power	2174
hee	2175
applied	2176
intriguing	2177
bakery	2178
wild	2179
shivering	2180
register	2181
compensated	2182
##ible	2183
pulling	2184
lagoon	2185
opened	2186
packing	2187
,	2188
revolutions	2189
blow	2190
against	2191
stressed	2192
##ades	2193
##hom	2194
jailed	2195
prevalent	2196
##ft	2197
distraction	2198
repay	2199
adherents	2200
editor	2201
confederate	2202
1689	2203
similarities	2204
earrings	2205
##oll	2206
trainer	2207
cages	2208
##color	2209
cheek	2210
pedestrian	2211
stones	2212
pizza	2213
arose	2214
ducks	2215
freight	2216
##ging	2217
throughout	2218
##belt	2219
catalog	2220
fuels	2221
rainy	2222
sports	2223
hopeful	2224
voting	2225
laundry	2226
refusal	2227
magical	2228
##cker	2229
##mail	2230
consumption	2231
hebrew	2232
significant	2233
##dded	2234
##pressing	2235
superintendent	2236
lear	2237
virtues	2238
electronic	2239
psyche	2240
mute	2241
1650	2242
completion	2243
desktop	2244
gathered	2245
circus	2246
drop	2247
une	2248
guitar	2249
##hol	2250
cooled	2251
possessed	2252
effective	2253
taxpayers	2254
addressing	2255
brewing	2256
##clusive	2257
republicans	2258
sleeps	2259
##roved	2260
pepsi	2261
mixing	2262
suggestion	2263
allies	2264
pod	2265
##uder	2266
pt	2267
blind	2268
strengths	2269
loudly	2270
sewing	2271
highlands	2272
explore	2273
renewed	2274
attendant	2275
entrance	2276
troll	2277
medicines	2278
##ras	2279
connections	2280
##trip	2281
gladly	2282
##centric	2283
readers	2284
hon	2285
ap	2286
failures	2287
atlantis	2288
yacht	2289
fortunately	2290
cancer	2291
##uda	2292
evade	2293
seas	2294
equally	2295
disease	2296
eccentric	2297
matches	2298
senators	2299
lobby	2300
sound	2301
11	2302
shoe	2303
extra	2304
booked	2305
decades	2306
hawks	2307
red	2308
fist	2309
nun	2310
26	2311
likes	2312
naga	2313
suits	2314
drummer	2315
wrongly	2316
smith	2317
rep	2318
wrenched	2319
predict	2320
premature	2321
holes	2322
healing	2323
daughters	2324
ruining	2325
##ning	2326
enjoys	2327
##ef	2328
deafening	2329
sang	2330
chemical	2331
20	2332
peeked	2333
##ow	2334
##oka	2335
ge	2336
frogs	2337
##ups	2338
remembering	2339
nat	2340
hack	2341
targeting	2342
##fur	2343
boulder	2344
bothered	2345
page	2346
##ico	2347
allied	2348
hills	2349
fiction	2350
##hini	2351
staple	2352
advice	2353
sending	2354
wrath	2355
sean	2356
casual	2357
separation	2358
germans	2359
smallpox	2360
heroin	2361
psychologist	2362
##ffy	2363
strongest	2364
vi	2365
##oys	2366
##vy	2367
prepared	2368
dirty	2369
roar	2370
turning	2371
nut	2372
##rea	2373
crossed	2374
stormy	2375
souls	2376
laboratory	2377
pitching	2378
google	2379
##ries	2380
boycott	2381
economic	2382
statement	2383
peoples	2384
##ailed	2385
##sa	2386
recover	2387
##zen	2388
cupboard	2389
cholera	2390
poem	2391
darkness	2392
lightning	2393
collateral	2394
fracture	2395
road	2396
exits	2397
hole	2398
comprehend	2399
examine	2400
hang	2401
union	2402
beats	2403
civilians	2404
barriers	2405
##graph	2406
examples	2407
storms	2408
women	2409
##za	2410
gonna	2411
##phones	2412
##ust	2413
parish	2414
ella	2415
heated	2416
possibly	2417
symphony	2418
motivation	2419
warmth	2420
intervention	2421
traits	2422
nara	2423
deeply	2424
referee	2425
gloves	2426
context	2427
paperback	2428
sentiment	2429
rendered	2430
hem	2431
organize	2432
quantities	2433
sam	2434
unfamiliar	2435
deer	2436
pit	2437
crawl	2438
acknowledged	2439
##tell	2440
squeezed	2441
##pas	2442
guarded	2443
walk	2444
##ized	2445
wraps	2446
jobs	2447
times	2448
frightening	2449
unconstitutional	2450
eating	2451
lust	2452
managing	2453
##tte	2454
charge	2455
experienced	2456
yoga	2457
##ographer	2458
called	2459
prime	2460
bikes	2461
unwanted	2462
witch	2463
jersey	2464
remove	2465
pieces	2466
em	2467
designated	2468
sewage	2469
sheep	2470
loving	2471
fixing	2472
cartoons	2473
regretted	2474
kim	2475
secondary	2476
filing	2477
unanimously	2478
notice	2479
ladies	2480
keller	2481
##il	2482
##lor	2483
calf	2484
honors	2485
century	2486
excellence	2487
##plex	2488
twin	2489
gills	2490
servants	2491
leadership	2492
dense	2493
##imi	2494
whiskey	2495
dedication	2496
throne	2497
yet	2498
offered	2499
grill	2500
shave	2501
camp	2502
specific	2503
tripped	2504
classes	2505
violence	2506
equipped	2507
programs	2508
attended	2509
pen	2510
cynical	2511
oh	2512
accounted	2513
education	2514
hangs	2515
##jured	2516
frequency	2517
lots	2518
##tti	2519
street	2520
cozy	2521
engineered	2522
dear	2523
adolescents	2524
hanover	2525
weakly	2526
engines	2527
china	2528
mob	2529
sl	2530
ek	2531
stepping	2532
backgrounds	2533
faded	2534
plague	2535
paws	2536
##ea	2537
##vier	2538
breeds	2539
planets	2540
nuts	2541
stirred	2542
tear	2543
ever	2544
helpful	2545
aiming	2546
electronics	2547
shy	2548
drill	2549
decreased	2550
attribute	2551
ranch	2552
##zu	2553
##ak	2554
##nock	2555
sizes	2556
irritating	2557
science	2558
coins	2559
exactly	2560
strawberry	2561
comedians	2562
nickel	2563
##fles	2564
reveal	2565
liverpool	2566
englishman	2567
bringing	2568
symphonic	2569
touching	2570
gesture	2571
stew	2572
thanking	2573
anywhere	2574
powerful	2575
wondered	2576
gdp	2577
war	2578
patients	2579
constantly	2580
##rk	2581
intersection	2582
##dote	2583
venom	2584
##he	2585
derived	2586
##gam	2587
comparison	2588
success	2589
forecast	2590
accompanied	2591
surrender	2592
climb	2593
environmental	2594
##rate	2595
artificial	2596
remarks	2597
forth	2598
pilot	2599
big	2600
smart	2601
##mo	2602
lovers	2603
exile	2604
##ms	2605
sufficient	2606
insert	2607
source	2608
metal	2609
##dicate	2610
royce	2611
unreliable	2612
immunity	2613
##ib	2614
76	2615
fuel	2616
##ured	2617
disgusted	2618
formal	2619
##phobic	2620
##ving	2621
relies	2622
##nka	2623
buddhist	2624
desire	2625
increases	2626
removed	2627
monetary	2628
inclined	2629
##2	2630
struggling	2631
porter	2632
tempted	2633
qur	2634
paper	2635
entertain	2636
december	2637
cocoa	2638
calcutta	2639
curse	2640
lie	2641
emotional	2642
weddings	2643
windmill	2644
finally	2645
relax	2646
negotiation	2647
signatures	2648
dorm	2649
discovery	2650
flirt	2651
floating	2652
competitors	2653
##nged	2654
loose	2655
2	2656
##gy	2657
##iti	2658
rhine	2659
obscene	2660
molecule	2661
organisation	2662
sized	2663
folding	2664
seized	2665
##ough	2666
cow	2667
armenia	2668
gifts	2669
mapped	2670
reluctant	2671
wind	2672
set	2673
phenomenon	2674
machine	2675
graduated	2676
evil	2677
compromise	2678
##arian	2679
delegates	2680
active	2681
rainfall	2682
##uel	2683
##sho	2684
mocked	2685
##ped	2686
cousin	2687
citizenship	2688
middle	2689
liter	2690
##sti	2691
alarm	2692
descendants	2693
francisco	2694
philosophy	2695
arrangements	2696
shiver	2697
##ond	2698
rope	2699
spade	2700
rational	2701
##ended	2702
##tric	2703
dude	2704
pleased	2705
complained	2706
overheard	2707
riot	2708
same	2709
meters	2710
seat	2711
##lash	2712
country	2713
early	2714
toward	2715
g	2716
west	2717
wrist	2718
leaf	2719
##dity	2720
bruises	2721
tossed	2722
##sl	2723
railroads	2724
slept	2725
prevailed	2726
tenant	2727
jumping	2728
fa	2729
obsession	2730
stroke	2731
queer	2732
##ar	2733
criticized	2734
bowling	2735
influence	2736
understanding	2737
hitting	2738
kidney	2739
ain	2740
scientist	2741
twelfth	2742
##berry	2743
accessible	2744
channel	2745
intro	2746
aim	2747
passports	2748
##ulation	2749
sons	2750
nagoya	2751
ni	2752
slacks	2753
fishing	2754
te	2755
radicals	2756
hourly	2757
asking	2758
threat	2759
horizon	2760
blown	2761
recording	2762
communicating	2763
trailer	2764
spots	2765
contains	2766
overs	2767
then	2768
laborers	2769
year	2770
arizona	2771
talent	2772
clothes	2773
necks	2774
corner	2775
##ming	2776
##ew	2777
chemotherapy	2778
minnesota	2779
money	2780
flooded	2781
##under	2782
comic	2783
grid	2784
ingredients	2785
invention	2786
neighbour	2787
glaciers	2788
##torm	2789
talented	2790
signed	2791
##ulous	2792
##ny	2793
chains	2794
restaurant	2795
##res	2796
topped	2797
variables	2798
taking	2799
diversified	2800
##ian	2801
magnet	2802
forced	2803
pictures	2804
core	2805
##mer	2806
barr	2807
teenager	2808
afterward	2809
chartered	2810
mono	2811
nelson	2812
tolerated	2813
##kind	2814
printed	2815
household	2816
nearby	2817
touch	2818
freezing	2819
taken	2820
##mes	2821
h₂o	2822
spies	2823
fires	2824
dignity	2825
heel	2826
else	2827
staying	2828
##nio	2829
valley	2830
mid	2831
victims	2832
supporting	2833
cake	2834
cong	2835
chairperson	2836
route	2837
minutes	2838
turned	2839
unpopular	2840
reviewing	2841
skeptical	2842
clung	2843
rested	2844
pins	2845
pluto	2846
returned	2847
horror	2848
##ec	2849
beef	2850
interests	2851
client	2852
dozens	2853
bump	2854
##zier	2855
##tree	2856
violinist	2857
##ens	2858
steadily	2859
romans	2860
##sum	2861
seldom	2862
hear	2863
technically	2864
##away	2865
okay	2866
religions	2867
lack	2868
instant	2869
hitler	2870
young	2871
##ard	2872
composed	2873
brow	2874
deployment	2875
forms	2876
##plication	2877
regret	2878
##thi	2879
dioxide	2880
##oli	2881
blunt	2882
dogs	2883
pr	2884
teen	2885
accusing	2886
eyelids	2887
possible	2888
multiplication	2889
##rite	2890
person	2891
clean	2892
either	2893
balcony	2894
mention	2895
##smo	2896
scalp	2897
disappointment	2898
blowing	2899
savage	2900
surely	2901
taxpayer	2902
embraced	2903
latin	2904
respectful	2905
picnic	2906
##rum	2907
freeze	2908
cube	2909
madison	2910
urgent	2911
det	2912
##eb	2913
salvation	2914
alternatives	2915
##atable	2916
##gging	2917
alone	2918
chop	2919
tastes	2920
bowl	2921
structural	2922
agenda	2923
##ly	2924
sweep	2925
plates	2926
lu	2927
##get	2928
se	2929
resigned	2930
takes	2931
needing	2932
promptly	2933
shell	2934
murdered	2935
neither	2936
subjective	2937
meadow	2938
doubt	2939
strangled	2940
manage	2941
choose	2942
hallway	2943
charges	2944
newspapers	2945
spy	2946
relieved	2947
earning	2948
graveyard	2949
competitive	2950
thicker	2951
vision	2952
appointment	2953
nor	2954
vietnam	2955
stripped	2956
susceptible	2957
indoors	2958
macbeth	2959
inner	2960
buildings	2961
militia	2962
prominent	2963
manga	2964
sweater	2965
closer	2966
beijing	2967
##bly	2968
scent	2969
found	2970
cease	2971
calculations	2972
##ame	2973
desperately	2974
fundraiser	2975
aliens	2976
towel	2977
invite	2978
244	2979
##eo	2980
overseas	2981
italian	2982
television	2983
entries	2984
said	2985
##tors	2986
afar	2987
reindeer	2988
sewer	2989
blows	2990
speak	2991
woke	2992
absence	2993
noses	2994
linux	2995
##titled	2996
aisle	2997
##ken	2998
hopeless	2999
cautious	3000
bum	3001
reputation	3002
##hered	3003
looked	3004
whose	3005
moss	3006
monument	3007
landscapes	3008
pudding	3009
##unced	3010
sake	3011
whistling	3012
##ctic	3013
neighbors	3014
tallest	3015
##ved	3016
horseshoe	3017
163	3018
##gg	3019
someday	3020
##oo	3021
handicapped	3022
bishop	3023
fame	3024
actor	3025
pinched	3026
publishing	3027
definitions	3028
confined	3029
distance	3030
fresh	3031
unnecessary	3032
shirts	3033
locomotive	3034
delicate	3035
##pic	3036
sides	3037
confirmation	3038
punch	3039
absolutely	3040
meets	3041
footing	3042
playing	3043
birthday	3044
profitable	3045
circles	3046
##bery	3047
toxic	3048
!	3049
try	3050
##fied	3051
christians	3052
dug	3053
policy	3054
##iter	3055
adventures	3056
##ologist	3057
mercury	3058
advance	3059
pearl	3060
##udge	3061
enlarged	3062
soldier	3063
lately	3064
asserted	3065
chewing	3066
ghost	3067
gorgeous	3068
playground	3069
profound	3070
dimensions	3071
##eber	3072
band	3073
donors	3074
roaring	3075
tends	3076
positively	3077
advisor	3078
outta	3079
mr	3080
computers	3081
sharpened	3082
##ered	3083
slim	3084
dubbed	3085
pregnancy	3086
navy	3087
habits	3088
##ker	3089
##uni	3090
alice	3091
frank	3092
flows	3093
##nea	3094
##amy	3095
nails	3096
##break	3097
give	3098
spokesperson	3099
outlet	3100
fraction	3101
pg	3102
vlad	3103
##ization	3104
clumsy	3105
bearings	3106
sandwiches	3107
salon	3108
##sai	3109
budget	3110
mattered	3111
##mi	3112
restored	3113
shock	3114
para	3115
einstein	3116
sai	3117
##hing	3118
wishes	3119
bottled	3120
messing	3121
shape	3122
conductor	3123
acre	3124
present	3125
incorrectly	3126
those	3127
bandage	3128
eight	3129
map	3130
than	3131
##kes	3132
keyboard	3133
##oh	3134
feat	3135
sour	3136
##ree	3137
capt	3138
schizophrenia	3139
composition	3140
by	3141
summit	3142
apr	3143
network	3144
full	3145
afternoon	3146
bible	3147
##turn	3148
approve	3149
students	3150
suffered	3151
minimal	3152
##ish	3153
##tained	3154
tears	3155
##led	3156
alligator	3157
expanding	3158
tattoo	3159
pair	3160
resource	3161
bruised	3162
duck	3163
due	3164
to	3165
paperwork	3166
moves	3167
providing	3168
mario	3169
lord	3170
##lence	3171
milton	3172
excuse	3173
comedies	3174
##wash	3175
##uy	3176
brass	3177
aus	3178
recall	3179
robots	3180
immature	3181
parlor	3182
fade	3183
very	3184
everest	3185
negative	3186
leaps	3187
inmates	3188
halftime	3189
predictions	3190
conducts	3191
endings	3192
address	3193
procedures	3194
starved	3195
schedule	3196
trap	3197
reach	3198
##far	3199
driving	3200
magazines	3201
30	3202
stamps	3203
##tic	3204
eventually	3205
coffin	3206
insect	3207
organizations	3208
frustrating	3209
pot	3210
tasting	3211
create	3212
shocks	3213
cleared	3214
slower	3215
boys	3216
die	3217
beauty	3218
investors	3219
catastrophic	3220
tools	3221
parole	3222
passion	3223
poorly	3224
av	3225
producing	3226
eruption	3227
exercised	3228
moscow	3229
fault	3230
restless	3231
##ller	3232
till	3233
steering	3234
##hun	3235
##eous	3236
stacked	3237
215	3238
breeding	3239
tense	3240
layout	3241
abandoned	3242
collecting	3243
##ically	3244
##iff	3245
##sities	3246
opening	3247
withdrawal	3248
earlier	3249
theft	3250
mal	3251
entered	3252
ipad	3253
chase	3254
rushed	3255
hybrid	3256
decay	3257
diamond	3258
loaf	3259
tour	3260
madeira	3261
cover	3262
buttons	3263
##till	3264
cannot	3265
fantasy	3266
counted	3267
thoroughly	3268
joint	3269
resting	3270
##den	3271
maintenance	3272
jelly	3273
##front	3274
adjusted	3275
##factory	3276
patriot	3277
##rail	3278
dish	3279
lifeboat	3280
betrayed	3281
microscope	3282
prosecution	3283
##mb	3284
tablets	3285
arrest	3286
prom	3287
vest	3288
descended	3289
review	3290
quiz	3291
fists	3292
invitation	3293
youngest	3294
existence	3295
ran	3296
harmony	3297
1957	3298
##fe	3299
##chy	3300
seventeen	3301
stadium	3302
apollo	3303
guidance	3304
homes	3305
##or	3306
possess	3307
1860	3308
halves	3309
unfolded	3310
au	3311
1985	3312
hara	3313
stop	3314
sur	3315
effectively	3316
ba	3317
bodies	3318
banished	3319
comparing	3320
time	3321
arithmetic	3322
bury	3323
delicately	3324
theories	3325
crush	3326
purchased	3327
##sable	3328
faults	3329
pack	3330
actions	3331
##mble	3332
##law	3333
may	3334
entertainment	3335
forgot	3336
research	3337
dangers	3338
busiest	3339
plagued	3340
clocks	3341
urge	3342
smoothing	3343
flown	3344
##irs	3345
jorge	3346
##rita	3347
dangerously	3348
evening	3349
born	3350
##zed	3351
poisoned	3352
drastic	3353
##aling	3354
widely	3355
undo	3356
really	3357
chunk	3358
woman	3359
ko	3360
##nne	3361
bugs	3362
denying	3363
attack	3364
windy	3365
distracted	3366
speeches	3367
translation	3368
spain	3369
##my	3370
theory	3371
supported	3372
sketch	3373
handle	3374
darkened	3375
alley	3376
mach	3377
mental	3378
autopsy	3379
custody	3380
fiance	3381
whom	3382
criterion	3383
mum	3384
awkward	3385
provides	3386
brand	3387
deteriorated	3388
smack	3389
suspicious	3390
500	3391
23rd	3392
goals	3393
romanian	3394
unemployment	3395
racism	3396
accounting	3397
ridden	3398
closet	3399
barrel	3400
construct	3401
##shaft	3402
blurred	3403
##sight	3404
trembling	3405
ja	3406
organ	3407
lecture	3408
100	3409
make	3410
confidential	3411
marvel	3412
filed	3413
fugitive	3414
walls	3415
programming	3416
fine	3417
buds	3418
##backs	3419
temple	3420
attend	3421
concussion	3422
behave	3423
communist	3424
respects	3425
tender	3426
vibrating	3427
elsewhere	3428
honey	3429
##ace	3430
legend	3431
cope	3432
desired	3433
defendant	3434
involves	3435
##logy	3436
gardening	3437
sticky	3438
basics	3439
establish	3440
sharing	3441
highest	3442
##gly	3443
harvest	3444
##holding	3445
glance	3446
juice	3447
kill	3448
graduate	3449
total	3450
essays	3451
center	3452
bases	3453
apparent	3454
priced	3455
##rg	3456
aero	3457
expense	3458
interaction	3459
baritone	3460
##dia	3461
dangerous	3462
speechless	3463
##bu	3464
trips	3465
uncommon	3466
minute	3467
steward	3468
flour	3469
umpire	3470
##lice	3471
##girl	3472
print	3473
20th	3474
wage	3475
bankruptcy	3476
poking	3477
veto	3478
guess	3479
##ing	3480
generated	3481
repeated	3482
lipstick	3483
worrying	3484
deceased	3485
dim	3486
body	3487
rec	3488
ness	3489
shops	3490
determination	3491
further	3492
speakers	3493
lion	3494
disguise	3495
lists	3496
bucket	3497
actress	3498
dared	3499
saxophone	3500
extinguished	3501
ground	3502
dealt	3503
##po	3504
goodbye	3505
privacy	3506
4	3507
wonder	3508
heavy	3509
differently	3510
scars	3511
much	3512
proposals	3513
confront	3514
##pu	3515
entrusted	3516
fruits	3517
equator	3518
##ssing	3519
indonesia	3520
teeth	3521
risk	3522
mark	3523
firefighters	3524
##rsa	3525
killing	3526
contempt	3527
voter	3528
camel	3529
award	3530
historical	3531
friendship	3532
assaulted	3533
trials	3534
font	3535
zoom	3536
outfits	3537
dash	3538
sox	3539
ticked	3540
thank	3541
america	3542
remain	3543
football	3544
##ified	3545
##tery	3546
sculpture	3547
guardian	3548
lumber	3549
canteen	3550
dressed	3551
convenient	3552
buffalo	3553
##wer	3554
##games	3555
##lf	3556
##finger	3557
transparent	3558
ob	3559
instrumental	3560
drenched	3561
imprisonment	3562
cal	3563
biking	3564
clone	3565
##un	3566
scientists	3567
case	3568
traces	3569
tanker	3570
mixture	3571
euro	3572
volleyball	3573
dated	3574
separately	3575
wants	3576
cramped	3577
piled	3578
drought	3579
##s	3580
##gal	3581
carp	3582
streaming	3583
coughed	3584
120	3585
bullying	3586
##lers	3587
ready	3588
mother	3589
hears	3590
quiet	3591
suspected	3592
studies	3593
conscience	3594
portrait	3595
nothing	3596
opposing	3597
surprisingly	3598
compiling	3599
intern	3600
weapon	3601
backyard	3602
autumn	3603
uncovered	3604
cardboard	3605
liquid	3606
##bay	3607
lux	3608
1956	3609
locally	3610
curious	3611
plump	3612
pal	3613
votes	3614
28	3615
lenses	3616
friction	3617
bun	3618
connect	3619
ted	3620
rat	3621
crocodile	3622
##bey	3623
continue	3624
opens	3625
indonesian	3626
books	3627
clapping	3628
##l	3629
##dda	3630
acted	3631
meter	3632
bowing	3633
##uch	3634
manufactures	3635
connection	3636
ann	3637
1936	3638
##lined	3639
clock	3640
##omic	3641
distribution	3642
dissatisfaction	3643
insufficient	3644
ban	3645
##phobia	3646
motorcycles	3647
##fires	3648
domestically	3649
stores	3650
food	3651
graduates	3652
members	3653
floats	3654
##ta	3655
leader	3656
strike	3657
##rist	3658
val	3659
half	3660
fooled	3661
taxes	3662
employs	3663
rebuild	3664
inappropriate	3665
binoculars	3666
alarms	3667
photography	3668
counter	3669
mesopotamia	3670
##rling	3671
endure	3672
dirt	3673
dreaming	3674
ill	3675
gossip	3676
grandfather	3677
traditional	3678
oboe	3679
appreciate	3680
##ira	3681
##cens	3682
##ua	3683
heap	3684
1990s	3685
hurricane	3686
tone	3687
lunar	3688
rash	3689
cho	3690
supposed	3691
worthless	3692
platform	3693
vegetation	3694
growled	3695
lucky	3696
protection	3697
criminal	3698
talking	3699
##all	3700
enormous	3701
oceans	3702
##ometer	3703
##iol	3704
voted	3705
possibilities	3706
weighing	3707
explicitly	3708
##ter	3709
##ung	3710
mess	3711
besieged	3712
dancer	3713
1927	3714
implied	3715
31	3716
travels	3717
fake	3718
2010	3719
mommy	3720
slavery	3721
##olis	3722
rehearsals	3723
used	3724
##hat	3725
aspirations	3726
recognize	3727
bidding	3728
adhere	3729
duty	3730
billie	3731
seeks	3732
colombia	3733
persian	3734
races	3735
domain	3736
weak	3737
hop	3738
trickle	3739
forests	3740
##eering	3741
valued	3742
straw	3743
sarcasm	3744
##tose	3745
whimper	3746
nfl	3747
deal	3748
1989	3749
tapped	3750
reassuring	3751
siberia	3752
##ot	3753
humiliated	3754
##agger	3755
watering	3756
##se	3757
artery	3758
while	3759
casino	3760
brook	3761
cans	3762
dec	3763
stitches	3764
quad	3765
decisive	3766
true	3767
doorstep	3768
tongue	3769
devi	3770
##minate	3771
bits	3772
##ivate	3773
tan	3774
account	3775
pop	3776
##pressed	3777
grows	3778
event	3779
surprised	3780
crawling	3781
owns	3782
##eres	3783
beside	3784
proud	3785
richest	3786
racing	3787
days	3788
glanced	3789
hotter	3790
##ters	3791
##uki	3792
##fa	3793
tower	3794
classic	3795
misery	3796
wavelengths	3797
massachusetts	3798
##ve	3799
violin	3800
paying	3801
docking	3802
anime	3803
##ek	3804
spite	3805
landscape	3806
networks	3807
sand	3808
lamb	3809
defiance	3810
stabbed	3811
scenes	3812
assassination	3813
cruise	3814
comedy	3815
17th	3816
poured	3817
insulted	3818
##en	3819
taxis	3820
##ana	3821
##amina	3822
##dium	3823
plucked	3824
radio	3825
peak	3826
pension	3827
31st	3828
stuffed	3829
little	3830
africa	3831
vanished	3832
##bolic	3833
optimistic	3834
serum	3835
yugoslavia	3836
phone	3837
prize	3838
##hel	3839
stamped	3840
needle	3841
golden	3842
religion	3843
led	3844
tolerate	3845
clearer	3846
infinitely	3847
associated	3848
desert	3849
neglect	3850
hideout	3851
alter	3852
meal	3853
rome	3854
conserve	3855
##vu	3856
sandwich	3857
prevent	3858
1987	3859
##otic	3860
fools	3861
f	3862
adamant	3863
counterparts	3864
lined	3865
beasts	3866
pat	3867
##ize	3868
users	3869
##olo	3870
project	3871
qui	3872
parking	3873
##storm	3874
brush	3875
differs	3876
##nis	3877
oppression	3878
fighters	3879
expectations	3880
track	3881
fraud	3882
glowing	3883
ordering	3884
deputy	3885
##tions	3886
trousers	3887
voyage	3888
hiking	3889
expelled	3890
##shi	3891
slices	3892
##5	3893
loco	3894
returns	3895
england	3896
##oned	3897
downhill	3898
##i	3899
breed	3900
bounds	3901
vibe	3902
shining	3903
agitated	3904
##ished	3905
massage	3906
crystal	3907
headmaster	3908
##verance	3909
meaningless	3910
wrote	3911
##bit	3912
tease	3913
applicant	3914
approximately	3915
##taking	3916
processor	3917
amusing	3918
pierced	3919
fetch	3920
arrange	3921
##bers	3922
rural	3923
provisions	3924
boxers	3925
##fish	3926
careful	3927
guns	3928
tuition	3929
##tory	3930
happy	3931
##bbling	3932
recreational	3933
modifications	3934
discuss	3935
british	3936
status	3937
##tel	3938
cheated	3939
obtain	3940
ultimatum	3941
proof	3942
paints	3943
earnest	3944
tires	3945
inflicted	3946
investigating	3947
startled	3948
hesitated	3949
legal	3950
asian	3951
progressing	3952
acts	3953
wren	3954
outrage	3955
##graphs	3956
forum	3957
flop	3958
considering	3959
moody	3960
gulp	3961
mri	3962
##bered	3963
fiscal	3964
vulnerable	3965
rigorous	3966
online	3967
cemetery	3968
diet	3969
surplus	3970
death	3971
natives	3972
physically	3973
spirits	3974
escorted	3975
cooler	3976
pigs	3977
wa	3978
but	3979
obstacles	3980
cher	3981
produced	3982
apology	3983
careless	3984
easing	3985
##pel	3986
clockwise	3987
lane	3988
contend	3989
wonderful	3990
tunes	3991
r	3992
antiques	3993
production	3994
##dun	3995
ken	3996
cambridge	3997
clarinet	3998
##ig	3999
distributed	4000
swing	4001
widows	4002
##open	4003
##nical	4004
chatter	4005
arrested	4006
58	4007
bottoms	4008
twenties	4009
android	4010
garage	4011
dock	4012
destruction	4013
dip	4014
snuck	4015
tops	4016
defend	4017
neighbours	4018
attendance	4019
fond	4020
pink	4021
lift	4022
characteristic	4023
##upt	4024
patron	4025
a	4026
resisting	4027
tornado	4028
##sen	4029
conclusions	4030
physicist	4031
pleasures	4032
hugging	4033
resist	4034
shanghai	4035
scots	4036
sole	4037
wolf	4038
hatch	4039
pools	4040
mosque	4041
expectation	4042
plural	4043
##bola	4044
neighborhood	4045
wasp	4046
common	4047
orders	4048
sap	4049
zip	4050
##iest	4051
encryption	4052
##e	4053
listed	4054
tall	4055
straightened	4056
secretary	4057
relationship	4058
tape	4059
dubious	4060
wanting	4061
##st	4062
enrolled	4063
parks	4064
unfinished	4065
eye	4066
identical	4067
concrete	4068
reprint	4069
##ssi	4070
safeguard	4071
##gler	4072
thinner	4073
rents	4074
crunch	4075
measurements	4076
swallowed	4077
persuaded	4078
logic	4079
stains	4080
sacrifice	4081
himself	4082
app	4083
dime	4084
secretive	4085
smell	4086
pick	4087
promises	4088
insulting	4089
double	4090
retro	4091
blankets	4092
genuinely	4093
ponytail	4094
##wk	4095
per	4096
hats	4097
horizontal	4098
patrick	4099
drivers	4100
ty	4101
51	4102
adopt	4103
pants	4104
whipped	4105
bay	4106
convictions	4107
deposited	4108
hacked	4109
wood	4110
indicated	4111
bracelet	4112
champion	4113
poison	4114
boasted	4115
##bet	4116
quarterly	4117
maids	4118
subway	4119
interact	4120
rules	4121
##ught	4122
partly	4123
rain	4124
##mute	4125
feminist	4126
grown	4127
testimony	4128
popcorn	4129
rejection	4130
humiliating	4131
sirens	4132
##fat	4133
point	4134
children	4135
sale	4136
sofa	4137
gather	4138
##cope	4139
rip	4140
##ulates	4141
extraordinary	4142
obey	4143
asleep	4144
locate	4145
yawned	4146
judgement	4147
afterwards	4148
bundle	4149
algebra	4150
##laze	4151
##itive	4152
figures	4153
monday	4154
keen	4155
##take	4156
completed	4157
sinks	4158
diplomat	4159
beneficial	4160
development	4161
contributions	4162
approach	4163
##aris	4164
##worm	4165
bond	4166
##hea	4167
##tine	4168
##ert	4169
80s	4170
halt	4171
##vili	4172
##rain	4173
sub	4174
accelerated	4175
twitter	4176
##ole	4177
revealed	4178
impossible	4179
collector	4180
formed	4181
thoughtfully	4182
stealing	4183
race	4184
alcohol	4185
skipped	4186
leave	4187
##nding	4188
6	4189
##ibe	4190
boat	4191
seaside	4192
bombay	4193
talked	4194
creation	4195
23	4196
threaten	4197
treats	4198
rebel	4199
reacting	4200
pardon	4201
##jer	4202
preserves	4203
maya	4204
bra	4205
##woman	4206
##can	4207
futuristic	4208
sofia	4209
yourselves	4210
founder	4211
disapproval	4212
##dice	4213
planting	4214
hostility	4215
##ore	4216
published	4217
chalk	4218
burn	4219
pajamas	4220
features	4221
mara	4222
enjoying	4223
doctors	4224
explained	4225
bel	4226
##ove	4227
##tal	4228
knives	4229
rich	4230
greatest	4231
amassed	4232
aid	4233
300	4234
sunshine	4235
risky	4236
vase	4237
turn	4238
meet	4239
teasing	4240
mor	4241
licking	4242
preliminary	4243
poster	4244
pianist	4245
sell	4246
insults	4247
warlord	4248
##es	4249
##mat	4250
jam	4251
papers	4252
dolphin	4253
enter	4254
€	4255
workout	4256
cool	4257
brave	4258
##kel	4259
despised	4260
lava	4261
feelings	4262
assuming	4263
adults	4264
##bbies	4265
baggage	4266
loyalists	4267
main	4268
focus	4269
faster	4270
sm	4271
tale	4272
meaning	4273
glass	4274
turkey	4275
envelope	4276
scarf	4277
##am	4278
phones	4279
tunnel	4280
wink	4281
jokes	4282
##oped	4283
unstable	4284
hire	4285
outstanding	4286
motioned	4287
##wind	4288
hoover	4289
rated	4290
##mple	4291
motives	4292
health	4293
describe	4294
ike	4295
begging	4296
combat	4297
adapt	4298
protesting	4299
occupational	4300
##cula	4301
##sse	4302
stone	4303
secure	4304
promised	4305
costs	4306
pole	4307
edges	4308
explanation	4309
hell	4310
##kit	4311
##lam	4312
triple	4313
mist	4314
recorded	4315
##boy	4316
going	4317
hardened	4318
court	4319
28th	4320
marie	4321
individual	4322
strongly	4323
##oit	4324
1683	4325
##sco	4326
extremely	4327
key	4328
##gue	4329
47	4330
recorder	4331
##hen	4332
lever	4333
v	4334
identity	4335
pacific	4336
legged	4337
##dra	4338
antique	4339
##du	4340
abuse	4341
burst	4342
bullets	4343
##tt	4344
rocks	4345
regulation	4346
proclamation	4347
##aro	4348
amend	4349
warped	4350
sincerely	4351
intervals	4352
##r	4353
geared	4354
lower	4355
hidden	4356
##sp	4357
##lth	4358
##rf	4359
discharged	4360
rebirth	4361
critical	4362
politicians	4363
noun	4364
##athic	4365
supermarket	4366
assembled	4367
abilities	4368
disturb	4369
licence	4370
quarters	4371
suburbs	4372
appealed	4373
admit	4374
coincide	4375
diagonal	4376
muslims	4377
music	4378
nail	4379
immigrated	4380
dj	4381
yells	4382
was	4383
law	4384
testing	4385
bow	4386
proceeded	4387
aroused	4388
audition	4389
##und	4390
##at	4391
cabinet	4392
pigeons	4393
continuous	4394
##verted	4395
fry	4396
cd	4397
ecology	4398
abandon	4399
raf	4400
pac	4401
unto	4402
oath	4403
beverage	4404
pl	4405
fusion	4406
dew	4407
civilization	4408
statue	4409
resemble	4410
compiled	4411
rise	4412
evolve	4413
sanitary	4414
honestly	4415
##ion	4416
covers	4417
serve	4418
proven	4419
##chu	4420
##om	4421
galaxies	4422
unfortunately	4423
##oya	4424
expands	4425
pie	4426
speaking	4427
wrestling	4428
sponsor	4429
##book	4430
pyramid	4431
grit	4432
journal	4433
sas	4434
root	4435
confirmed	4436
essence	4437
melt	4438
opera	4439
websites	4440
checks	4441
coordinator	4442
gnu	4443
deliberate	4444
gay	4445
##qui	4446
##hammer	4447
regaining	4448
bred	4449
rink	4450
dashed	4451
jewelry	4452
sadness	4453
saves	4454
fading	4455
reached	4456
aren	4457
##rank	4458
important	4459
collects	4460
name	4461
image	4462
easier	4463
sonata	4464
dvd	4465
wilson	4466
comments	4467
taiwan	4468
substitute	4469
pigeon	4470
gods	4471
accusations	4472
thick	4473
jewels	4474
valve	4475
##liest	4476
zulu	4477
altered	4478
##tight	4479
dialects	4480
bigger	4481
headlights	4482
##cing	4483
demonstrate	4484
fairly	4485
transform	4486
water	4487
delayed	4488
##omp	4489
universities	4490
longer	4491
kn	4492
confessions	4493
appointments	4494
privilege	4495
##gawa	4496
fashioned	4497
belongings	4498
##sack	4499
amounted	4500
ea	4501
##ev	4502
blur	4503
shutter	4504
limp	4505
thorns	4506
empire	4507
mo	4508
galileo	4509
##board	4510
dollars	4511
ongoing	4512
task	4513
struggles	4514
pages	4515
dresses	4516
waiter	4517
##iji	4518
airs	4519
cited	4520
resulting	4521
##ld	4522
##beat	4523
pitches	4524
smiled	4525
official	4526
pry	4527
intentional	4528
##ffled	4529
##enting	4530
seasons	4531
##nts	4532
article	4533
withstand	4534
ohio	4535
lived	4536
rolling	4537
depicted	4538
be	4539
fan	4540
prosperous	4541
chilled	4542
sorts	4543
samsung	4544
roller	4545
beamed	4546
precise	4547
protestant	4548
helping	4549
partially	4550
casualty	4551
eagerly	4552
healthcare	4553
paint	4554
thrilled	4555
calculating	4556
irresistible	4557
##mar	4558
devoted	4559
footsteps	4560
##ss	4561
inaccurate	4562
significance	4563
cubic	4564
ana	4565
dragons	4566
lifespan	4567
enough	4568
louis	4569
resentment	4570
alternative	4571
tell	4572
size	4573
fried	4574
##boot	4575
talk	4576
##itis	4577
constant	4578
cousins	4579
divide	4580
elderly	4581
rang	4582
ask	4583
##ati	4584
alphabet	4585
swell	4586
ripe	4587
##ipe	4588
##olved	4589
arguably	4590
i	4591
rate	4592
wash	4593
unions	4594
agreement	4595
##tin	4596
embrace	4597
magnitude	4598
##stones	4599
dessert	4600
miami	4601
400	4602
##gus	4603
locus	4604
clothing	4605
##n	4606
arctic	4607
submitted	4608
214	4609
flirting	4610
restrain	4611
company	4612
##itating	4613
##ln	4614
##gas	4615
1820	4616
organs	4617
##reate	4618
napoleon	4619
warm	4620
drive	4621
goat	4622
handy	4623
authority	4624
situation	4625
creature	4626
performed	4627
hobby	4628
chopped	4629
crude	4630
segment	4631
wagner	4632
investments	4633
transferred	4634
laugh	4635
presentation	4636
controlled	4637
##bags	4638
working	4639
##ice	4640
believe	4641
##tism	4642
argue	4643
workers	4644
eleven	4645
slight	4646
classify	4647
occurring	4648
##rr	4649
runs	4650
impressions	4651
divine	4652
jolly	4653
prior	4654
##gi	4655
##nut	4656
plastered	4657
occasions	4658
filling	4659
victorian	4660
raise	4661
pirate	4662
spare	4663
attache	4664
share	4665
teens	4666
arriving	4667
championships	4668
##ble	4669
damaged	4670
##ories	4671
maintaining	4672
enjoyable	4673
supermarkets	4674
cruelty	4675
graham	4676
fra	4677
pointing	4678
harmless	4679
fifties	4680
lectured	4681
##raine	4682
random	4683
praises	4684
rei	4685
##le	4686
airship	4687
blank	4688
chose	4689
circle	4690
palace	4691
empathy	4692
##gent	4693
executive	4694
plum	4695
blond	4696
mistaken	4697
differ	4698
passport	4699
lighthouse	4700
traveler	4701
##hip	4702
##pole	4703
goats	4704
printers	4705
limousine	4706
testified	4707
regulate	4708
##wives	4709
arise	4710
letting	4711
smartphone	4712
listened	4713
besides	4714
pointer	4715
pretending	4716
william	4717
familiarity	4718
jimmie	4719
nonstop	4720
##me	4721
solving	4722
##iable	4723
exchanged	4724
applications	4725
saw	4726
baby	4727
fling	4728
riddle	4729
##tu	4730
distress	4731
table	4732
freaked	4733
adobe	4734
click	4735
zoo	4736
calmed	4737
shipbuilding	4738
operative	4739
##ement	4740
tons	4741
sync	4742
##hiti	4743
lick	4744
lou	4745
sentence	4746
black	4747
question	4748
awakened	4749
vein	4750
pouring	4751
prints	4752
nitrogen	4753
gum	4754
thin	4755
instead	4756
longed	4757
staircase	4758
naughty	4759
anchorage	4760
mecca	4761
dia	4762
pony	4763
raised	4764
##alis	4765
##aid	4766
got	4767
parted	4768
misunderstanding	4769
prepares	4770
ambulance	4771
contribution	4772
poetry	4773
alleviate	4774
grind	4775
dictatorship	4776
legally	4777
thieves	4778
hitch	4779
barbecue	4780
hood	4781
##len	4782
med	4783
##ile	4784
##ily	4785
attractive	4786
percentage	4787
boost	4788
swiftly	4789
alternate	4790
ucla	4791
european	4792
drawing	4793
bunch	4794
controversial	4795
doctor	4796
therapy	4797
shrines	4798
secret	4799
pains	4800
rule	4801
bear	4802
furniture	4803
doubts	4804
##fying	4805
ability	4806
supreme	4807
sighed	4808
clinic	4809
coaches	4810
stuff	4811
scored	4812
stark	4813
exhibition	4814
reception	4815
seeking	4816
three	4817
adult	4818
jug	4819
helpless	4820
finely	4821
exotic	4822
lost	4823
bolted	4824
tasted	4825
clients	4826
##nor	4827
plotting	4828
wines	4829
upstairs	4830
ward	4831
##arable	4832
revelation	4833
haired	4834
trauma	4835
ich	4836
##da	4837
reckon	4838
employment	4839
##nob	4840
eyebrow	4841
form	4842
seizure	4843
close	4844
wanted	4845
preserved	4846
dad	4847
monthly	4848
gotta	4849
rap	4850
email	4851
roast	4852
arrived	4853
impressed	4854
rising	4855
translating	4856
port	4857
endangered	4858
objections	4859
spring	4860
asylum	4861
confuse	4862
hiding	4863
##ony	4864
beautifully	4865
shells	4866
relied	4867
rwanda	4868
makeup	4869
terrorist	4870
seafood	4871
##w	4872
woo	4873
relevant	4874
##dy	4875
packaging	4876
colleagues	4877
dozen	4878
tire	4879
fascinated	4880
eaten	4881
##g	4882
##onne	4883
loan	4884
minor	4885
pens	4886
reply	4887
improvements	4888
payments	4889
absent	4890
located	4891
heaven	4892
ache	4893
birthplace	4894
enclosed	4895
cabin	4896
york	4897
seen	4898
leisure	4899
foam	4900
fiancee	4901
frame	4902
element	4903
giants	4904
programmer	4905
expanded	4906
suspects	4907
presidential	4908
below	4909
conde	4910
excuses	4911
central	4912
malls	4913
humming	4914
forward	4915
translations	4916
##arm	4917
##ities	4918
host	4919
updates	4920
flaws	4921
convey	4922
##uga	4923
folder	4924
helmet	4925
redhead	4926
pacing	4927
bog	4928
monkey	4929
la	4930
milan	4931
results	4932
tore	4933
national	4934
silently	4935
##rre	4936
guidelines	4937
shallow	4938
outline	4939
popular	4940
update	4941
vancouver	4942
safely	4943
brace	4944
understand	4945
fitness	4946
mysteries	4947
greeted	4948
competent	4949
warned	4950
heir	4951
involved	4952
nightmare	4953
recommended	4954
vast	4955
hid	4956
ah	4957
bluff	4958
cost	4959
communicated	4960
##eem	4961
inn	4962
thursday	4963
impoverished	4964
deposit	4965
convinced	4966
arrives	4967
another	4968
1840s	4969
hug	4970
spray	4971
##apple	4972
coach	4973
false	4974
wherever	4975
misconduct	4976
grace	4977
beans	4978
corruption	4979
lacking	4980
22	4981
jazz	4982
publicly	4983
che	4984
forbade	4985
clutch	4986
somehow	4987
fund	4988
cross	4989
sail	4990
duff	4991
steel	4992
column	4993
might	4994
script	4995
marching	4996
ninja	4997
whichever	4998
colossal	4999
##ised	5000
##ici	5001
shopping	5002
retired	5003
remembered	5004
1945	5005
stretches	5006
fork	5007
respect	5008
commanding	5009
afford	5010
martian	5011
intimacy	5012
control	5013
compartment	5014
7th	5015
mechanic	5016
rites	5017
##tip	5018
mothers	5019
feeding	5020
##pre	5021
undoubtedly	5022
additional	5023
islands	5024
profoundly	5025
internal	5026
##zawa	5027
group	5028
##inator	5029
recognition	5030
##ure	5031
##lica	5032
horseback	5033
social	5034
rave	5035
successful	5036
invitations	5037
artists	5038
80	5039
within	5040
violate	5041
away	5042
brother	5043
pursued	5044
imaginative	5045
bern	5046
empowered	5047
implications	5048
sphinx	5049
sensation	5050
evidence	5051
attention	5052
candy	5053
exercise	5054
insanity	5055
measure	5056
##ented	5057
##ja	5058
with	5059
magician	5060
loses	5061
return	5062
##cise	5063
parody	5064
trees	5065
violated	5066
##dict	5067
imitation	5068
danes	5069
##liga	5070
detectives	5071
seattle	5072
bug	5073
adored	5074
##ena	5075
banker	5076
##craft	5077
mammals	5078
##xed	5079
trucks	5080
encounter	5081
offer	5082
##down	5083
shortly	5084
title	5085
consumers	5086
searched	5087
springs	5088
##oom	5089
potter	5090
attempt	5091
tremendous	5092
argentina	5093
67	5094
love	5095
requests	5096
bad	5097
##rou	5098
##proof	5099
morals	5100
##ware	5101
summers	5102
disorder	5103
prevented	5104
rooms	5105
hereditary	5106
cereal	5107
tickets	5108
gravity	5109
inability	5110
outside	5111
chairs	5112
##frey	5113
booth	5114
cartridge	5115
distinguish	5116
afternoons	5117
physical	5118
ushered	5119
replied	5120
santa	5121
angels	5122
res	5123
##ler	5124
inexpensive	5125
piles	5126
##dit	5127
subtle	5128
celebrated	5129
truth	5130
courses	5131
cap	5132
term	5133
1962	5134
shine	5135
lights	5136
smooth	5137
ups	5138
promotional	5139
sleeve	5140
exhaled	5141
flame	5142
diabetes	5143
disgusting	5144
fountain	5145
push	5146
drink	5147
growing	5148
thug	5149
bargain	5150
save	5151
hydra	5152
##ne	5153
tsunami	5154
##ull	5155
seventy	5156
depend	5157
rough	5158
shotgun	5159
##economic	5160
##zes	5161
garlic	5162
easiest	5163
##drive	5164
##mis	5165
equality	5166
1910	5167
tax	5168
jury	5169
aspiring	5170
marries	5171
shower	5172
portugal	5173
agriculture	5174
turks	5175
1911	5176
blamed	5177
deny	5178
##ppa	5179
yours	5180
exact	5181
##dina	5182
stating	5183
announced	5184
hostel	5185
factors	5186
jeans	5187
globe	5188
shove	5189
jammed	5190
##uted	5191
beck	5192
affirmed	5193
##wife	5194
nobel	5195
first	5196
south	5197
donkey	5198
enabled	5199
claws	5200
sockets	5201
##erina	5202
grain	5203
potato	5204
glimpse	5205
reminding	5206
romania	5207
activity	5208
##ug	5209
courtroom	5210
advise	5211
nevertheless	5212
10	5213
framed	5214
russian	5215
purposes	5216
##ru	5217
##lla	5218
amazing	5219
vocational	5220
audit	5221
9	5222
faith	5223
##cos	5224
cycle	5225
resides	5226
##ilo	5227
sincerity	5228
##fighter	5229
##nium	5230
sc	5231
eager	5232
conference	5233
roosevelt	5234
berries	5235
translated	5236
digging	5237
yards	5238
artistic	5239
chapters	5240
mrs	5241
indoor	5242
dream	5243
indifference	5244
ferrari	5245
owed	5246
plus	5247
math	5248
savings	5249
judges	5250
puppet	5251
hopefully	5252
snacks	5253
donations	5254
lakes	5255
clerks	5256
smoked	5257
recess	5258
flashlight	5259
##gon	5260
tablet	5261
istanbul	5262
armed	5263
communication	5264
points	5265
crew	5266
raft	5267
'	5268
subject	5269
reno	5270
450	5271
process	5272
interfere	5273
figured	5274
sloppy	5275
canceled	5276
visa	5277
plausible	5278
scare	5279
hai	5280
##25	5281
cooper	5282
heard	5283
guilt	5284
injuries	5285
celebration	5286
genetically	5287
stomach	5288
agent	5289
shivers	5290
twenty	5291
##cu	5292
mountain	5293
##ress	5294
catching	5295
brightest	5296
press	5297
laughing	5298
lowered	5299
##ng	5300
constraints	5301
stupidity	5302
##tted	5303
mad	5304
trombone	5305
overnight	5306
planned	5307
one	5308
mixed	5309
progressive	5310
omitted	5311
##offs	5312
denmark	5313
ends	5314
pathetic	5315
claim	5316
suns	5317
superior	5318
audio	5319
separates	5320
1876	5321
now	5322
backing	5323
insider	5324
beach	5325
spit	5326
ceasefire	5327
butcher	5328
weigh	5329
ways	5330
##mers	5331
rings	5332
overlooked	5333
spoon	5334
caravan	5335
82	5336
stab	5337
energetic	5338
hike	5339
##some	5340
textiles	5341
glancing	5342
bones	5343
slip	5344
notch	5345
magnificent	5346
ir	5347
defeat	5348
36	5349
250	5350
officials	5351
##ched	5352
orchestra	5353
spectators	5354
forgotten	5355
ancient	5356
##gh	5357
complications	5358
worsened	5359
mistake	5360
his	5361
hay	5362
humble	5363
##has	5364
resolve	5365
accident	5366
rescued	5367
149	5368
##lian	5369
disco	5370
x	5371
handgun	5372
##don	5373
crash	5374
posted	5375
approval	5376
spot	5377
profits	5378
##py	5379
##ches	5380
ib	5381
reportedly	5382
acting	5383
disclosed	5384
holy	5385
conditions	5386
bombed	5387
copyright	5388
forensic	5389
dagger	5390
pregnant	5391
scan	5392
blanket	5393
l	5394
threats	5395
teaches	5396
worry	5397
##iculate	5398
##wl	5399
dan	5400
scanner	5401
grabbed	5402
##post	5403
laughed	5404
muddy	5405
ninth	5406
that	5407
novelist	5408
eighteen	5409
charming	5410
avoided	5411
##orted	5412
ring	5413
monster	5414
military	5415
rubbed	5416
lifestyle	5417
luggage	5418
presently	5419
confidence	5420
refrigerator	5421
roman	5422
##bank	5423
borrowing	5424
1976	5425
shared	5426
tariff	5427
##gies	5428
collapse	5429
scissors	5430
rotten	5431
es	5432
liked	5433
succeeds	5434
##yse	5435
dare	5436
identification	5437
maid	5438
teacher	5439
ideas	5440
items	5441
never	5442
gambling	5443
knot	5444
appropriated	5445
stay	5446
pressed	5447
tipped	5448
bangkok	5449
battery	5450
staring	5451
hackney	5452
undone	5453
##ol	5454
forgetting	5455
native	5456
700	5457
except	5458
overtook	5459
beaches	5460
prompt	5461
winked	5462
loves	5463
incidents	5464
gallo	5465
vote	5466
disliked	5467
louder	5468
pumpkin	5469
parallel	5470
were	5471
copy	5472
annoying	5473
brothers	5474
solution	5475
looks	5476
benefit	5477
evenings	5478
##tub	5479
hockey	5480
urging	5481
hurrying	5482
intentions	5483
studio	5484
pills	5485
innate	5486
patiently	5487
miraculous	5488
innocent	5489
gritted	5490
shore	5491
reports	5492
break	5493
hastily	5494
compound	5495
radar	5496
permitting	5497
elected	5498
chips	5499
##mark	5500
compass	5501
helicopter	5502
lean	5503
##ryl	5504
teachers	5505
baked	5506
representative	5507
age	5508
inside	5509
routine	5510
barack	5511
contestants	5512
##fight	5513
vent	5514
guilty	5515
##rts	5516
theorists	5517
nephew	5518
protested	5519
fireworks	5520
injustice	5521
preach	5522
fog	5523
drag	5524
compassionate	5525
1914	5526
concerns	5527
##era	5528
splashed	5529
quantity	5530
spelled	5531
aging	5532
sixteenth	5533
monopoly	5534
abundant	5535
chimney	5536
##sling	5537
transportation	5538
near	5539
advertised	5540
lose	5541
boston	5542
brakes	5543
deliver	5544
registering	5545
welcome	5546
situated	5547
re	5548
propped	5549
backward	5550
afghanistan	5551
department	5552
danube	5553
parade	5554
##ocating	5555
transmission	5556
marble	5557
##bana	5558
favorable	5559
##ivo	5560
hey	5561
tam	5562
building	5563
oxygen	5564
sixteen	5565
interpretation	5566
sous	5567
wound	5568
hiroshima	5569
aka	5570
hamburger	5571
33	5572
##mus	5573
faulty	5574
believes	5575
demonstrated	5576
sympathy	5577
culture	5578
comets	5579
##dberg	5580
quota	5581
ci	5582
decorated	5583
sterling	5584
bird	5585
departed	5586
ants	5587
proceed	5588
86	5589
lanes	5590
protecting	5591
greens	5592
15	5593
opportunity	5594
sensitive	5595
cm	5596
favourite	5597
ribs	5598
crops	5599
signature	5600
rains	5601
california	5602
##ents	5603
tailor	5604
menu	5605
jaw	5606
archaeologist	5607
disdain	5608
##rim	5609
replaced	5610
goo	5611
1980	5612
sustained	5613
foundation	5614
developments	5615
settlers	5616
shoulders	5617
19th	5618
hate	5619
background	5620
anticipating	5621
toss	5622
comes	5623
crashed	5624
beyond	5625
hasn	5626
tattoos	5627
behaved	5628
laughs	5629
mostly	5630
poisonous	5631
monk	5632
speeding	5633
ending	5634
straight	5635
nice	5636
consolation	5637
erase	5638
tip	5639
extent	5640
genetic	5641
bath	5642
90	5643
variable	5644
document	5645
worm	5646
##coat	5647
bark	5648
marriages	5649
twins	5650
##ative	5651
prep	5652
##ki	5653
hilton	5654
nod	5655
weird	5656
##buck	5657
ultraviolet	5658
manufactured	5659
sp	5660
recovering	5661
supply	5662
##lea	5663
sorcerer	5664
##ty	5665
strict	5666
##wa	5667
launch	5668
##ril	5669
improvement	5670
annoyed	5671
##ros	5672
instincts	5673
farmers	5674
solar	5675
reviews	5676
ji	5677
cultivated	5678
warming	5679
quarter	5680
tractors	5681
ocean	5682
child	5683
renaissance	5684
attracts	5685
territory	5686
surrounding	5687
hesitation	5688
tuck	5689
fingerprints	5690
library	5691
musical	5692
arguing	5693
breaks	5694
wednesday	5695
gathers	5696
##titles	5697
infection	5698
brief	5699
suspended	5700
arrival	5701
avail	5702
werewolves	5703
##wig	5704
throbbing	5705
inches	5706
tiles	5707
picked	5708
wider	5709
link	5710
caribbean	5711
##oed	5712
##ulated	5713
define	5714
ventured	5715
peru	5716
perspective	5717
subscription	5718
express	5719
scratching	5720
##building	5721
##ject	5722
centered	5723
unpleasant	5724
discrimination	5725
officers	5726
guts	5727
ruthless	5728
capitals	5729
condemned	5730
elaborate	5731
sunlight	5732
bing	5733
widow	5734
##sle	5735
parrot	5736
simply	5737
sex	5738
##made	5739
sadly	5740
sparks	5741
university	5742
dusk	5743
series	5744
someone	5745
via	5746
rises	5747
calculation	5748
allow	5749
negotiating	5750
movie	5751
prose	5752
thorough	5753
ski	5754
bender	5755
iso	5756
recession	5757
hornets	5758
##of	5759
because	5760
museum	5761
neutral	5762
payment	5763
compensate	5764
recovered	5765
sport	5766
during	5767
customary	5768
defense	5769
wept	5770
put	5771
coyotes	5772
embassy	5773
brushes	5774
mustered	5775
dancing	5776
disadvantage	5777
##boards	5778
granddaughter	5779
cases	5780
touched	5781
logged	5782
pray	5783
masks	5784
papa	5785
oriental	5786
settle	5787
reaching	5788
ma	5789
issues	5790
shocking	5791
martial	5792
ukraine	5793
reminded	5794
shaping	5795
ale	5796
file	5797
feud	5798
arson	5799
nowadays	5800
bachelor	5801
insects	5802
unsuccessful	5803
hunted	5804
industrial	5805
##igraphy	5806
pedal	5807
foxes	5808
occupies	5809
mock	5810
aspect	5811
performance	5812
repeating	5813
again	5814
testify	5815
constructing	5816
mathematical	5817
heirs	5818
pastor	5819
originals	5820
shuddered	5821
decline	5822
breathed	5823
unhappy	5824
cleaning	5825
##nk	5826
charm	5827
##thic	5828
eleventh	5829
tequila	5830
luck	5831
##lo	5832
63	5833
highly	5834
coal	5835
laying	5836
followed	5837
elephants	5838
extended	5839
decision	5840
muscle	5841
freaking	5842
should	5843
garden	5844
morality	5845
spoiled	5846
climates	5847
spins	5848
piece	5849
physician	5850
boarding	5851
partnership	5852
starving	5853
barley	5854
dynamic	5855
##ep	5856
pause	5857
##ruck	5858
right	5859
seeds	5860
reverse	5861
cancelled	5862
find	5863
checked	5864
smoothly	5865
yang	5866
feeling	5867
style	5868
rejected	5869
nests	5870
laptop	5871
learning	5872
store	5873
room	5874
##kling	5875
ari	5876
conservative	5877
leaked	5878
chuckled	5879
##rad	5880
elk	5881
appearing	5882
overly	5883
requirements	5884
accountable	5885
instructions	5886
cold	5887
miss	5888
digital	5889
haiti	5890
annually	5891
trance	5892
tread	5893
countryside	5894
normal	5895
thigh	5896
react	5897
##holders	5898
catastrophe	5899
##oran	5900
colleague	5901
humor	5902
illness	5903
agrees	5904
pass	5905
debts	5906
snack	5907
toll	5908
pale	5909
proceeds	5910
buck	5911
shows	5912
manner	5913
sins	5914
2006	5915
japan	5916
depressed	5917
ceremony	5918
65	5919
belly	5920
failed	5921
mastering	5922
defects	5923
##ega	5924
encyclopedia	5925
tails	5926
encouragement	5927
cia	5928
unlock	5929
temperature	5930
role	5931
##eri	5932
bleeding	5933
finalist	5934
puzzle	5935
arrow	5936
broadband	5937
border	5938
imported	5939
##walk	5940
beverages	5941
converts	5942
refreshing	5943
stairwell	5944
##cloth	5945
bridge	5946
tigers	5947
compliment	5948
eliminate	5949
aching	5950
##not	5951
suitable	5952
gallery	5953
hurting	5954
harshly	5955
madman	5956
##oz	5957
claims	5958
prisoners	5959
commander	5960
pottery	5961
howled	5962
famously	5963
dial	5964
stable	5965
universal	5966
spectator	5967
travel	5968
includes	5969
##sb	5970
rocket	5971
athletes	5972
unpredictable	5973
linguistics	5974
association	5975
homer	5976
gu	5977
gripped	5978
safer	5979
##ako	5980
esteem	5981
sore	5982
albania	5983
scares	5984
gratitude	5985
##y	5986
air	5987
##ncies	5988
level	5989
names	5990
here	5991
gone	5992
debated	5993
habit	5994
storm	5995
detroit	5996
ufo	5997
explored	5998
hating	5999
yeast	6000
fold	6001
awareness	6002
owl	6003
##fold	6004
hammered	6005
fat	6006
soc	6007
pu	6008
arena	6009
40th	6010
flavor	6011
distances	6012
skirt	6013
##och	6014
##terol	6015
whale	6016
symptoms	6017
frown	6018
bulls	6019
cookie	6020
laughter	6021
invalid	6022
silly	6023
edo	6024
unity	6025
satisfied	6026
attacking	6027
lizard	6028
urban	6029
novels	6030
suicidal	6031
regard	6032
cosmetic	6033
##x	6034
rightful	6035
privy	6036
##used	6037
##nce	6038
delivery	6039
obscure	6040
contracted	6041
wrecked	6042
##fr	6043
destiny	6044
tabloid	6045
##hic	6046
shouting	6047
##ju	6048
dil	6049
ass	6050
market	6051
awarded	6052
##bling	6053
aspects	6054
chew	6055
respectable	6056
examination	6057
cooperate	6058
horse	6059
master	6060
energy	6061
employees	6062
crawled	6063
sacrifices	6064
restraint	6065
interpreter	6066
##pies	6067
dos	6068
slightly	6069
##point	6070
emperor	6071
bonus	6072
disappeared	6073
chasing	6074
sends	6075
rotate	6076
asked	6077
fastest	6078
attempts	6079
##ul	6080
exposed	6081
hair	6082
1975	6083
nodding	6084
##ord	6085
barn	6086
$	6087
protests	6088
wrap	6089
antenna	6090
##in	6091
##cc	6092
hound	6093
authoritative	6094
hotels	6095
320	6096
professionals	6097
cares	6098
ignores	6099
##going	6100
acid	6101
##kon	6102
surf	6103
coca	6104
relics	6105
var	6106
acquired	6107
romantic	6108
wait	6109
emails	6110
epidemic	6111
maru	6112
##pass	6113
mons	6114
21	6115
seconds	6116
hungry	6117
1	6118
pun	6119
duke	6120
many	6121
abused	6122
pollen	6123
builds	6124
fearless	6125
unauthorized	6126
bacteria	6127
enhance	6128
##eni	6129
athens	6130
remarried	6131
unknown	6132
toronto	6133
civilian	6134
harder	6135
free	6136
overwhelming	6137
##oop	6138
flies	6139
##pire	6140
earn	6141
jealous	6142
napkin	6143
enlisted	6144
participate	6145
observed	6146
gripping	6147
ru	6148
1928	6149
value	6150
admiring	6151
decides	6152
facts	6153
tribute	6154
officially	6155
liking	6156
castles	6157
windshield	6158
equipment	6159
outsider	6160
uniforms	6161
location	6162
##tton	6163
vital	6164
solemn	6165
explaining	6166
##kan	6167
sha	6168
poke	6169
stripes	6170
eat	6171
awaited	6172
pleaded	6173
fixture	6174
movements	6175
##oni	6176
mort	6177
##pen	6178
abs	6179
as	6180
sweden	6181
intent	6182
rusty	6183
actually	6184
trapped	6185
explanations	6186
ss	6187
sarcastic	6188
hunt	6189
hospitals	6190
der	6191
raises	6192
merlin	6193
shovel	6194
facing	6195
beliefs	6196
geological	6197
ing	6198
shown	6199
blushed	6200
we	6201
destroying	6202
milky	6203
silent	6204
pensions	6205
ok	6206
comforting	6207
##22	6208
##ening	6209
civil	6210
posthumously	6211
blacks	6212
rats	6213
closed	6214
academic	6215
finds	6216
insane	6217
falling	6218
lessons	6219
hugely	6220
pace	6221
corporations	6222
holdings	6223
gate	6224
scarce	6225
chemicals	6226
motivated	6227
waking	6228
periods	6229
##rin	6230
specializes	6231
##ns	6232
hut	6233
irritated	6234
waters	6235
##pa	6236
##ogist	6237
proposed	6238
tourist	6239
amazed	6240
swept	6241
humans	6242
statistics	6243
spread	6244
sailors	6245
sum	6246
georgia	6247
thereby	6248
exception	6249
burnt	6250
swimming	6251
roundabout	6252
occurred	6253
##iva	6254
accidental	6255
##q	6256
##eria	6257
unfit	6258
witnesses	6259
##line	6260
weed	6261
assess	6262
fuss	6263
selected	6264
settled	6265
sundays	6266
reward	6267
competitions	6268
da	6269
mode	6270
prank	6271
small	6272
undermine	6273
##orestation	6274
pill	6275
opportunities	6276
##f	6277
traitor	6278
##t	6279
hemingway	6280
impatience	6281
1941	6282
festival	6283
drifted	6284
##oss	6285
visions	6286
scarcely	6287
session	6288
absolute	6289
stays	6290
windows	6291
opponents	6292
fool	6293
word	6294
disturbing	6295
simplest	6296
does	6297
reputed	6298
yen	6299
royal	6300
##ties	6301
mischief	6302
forbidden	6303
depending	6304
##if	6305
superman	6306
prefers	6307
carriages	6308
bowls	6309
realized	6310
stopping	6311
knocking	6312
castro	6313
concerts	6314
outer	6315
us	6316
enjoy	6317
regarding	6318
##die	6319
combustion	6320
bilingual	6321
exceeding	6322
jack	6323
overdose	6324
everywhere	6325
types	6326
clinging	6327
wedge	6328
smashed	6329
##boys	6330
folded	6331
emerging	6332
metaphor	6333
explosives	6334
nightmares	6335
arrangement	6336
tired	6337
build	6338
referred	6339
northern	6340
##ag	6341
devil	6342
perfume	6343
##ir	6344
obvious	6345
pan	6346
inviting	6347
tank	6348
resume	6349
illinois	6350
or	6351
weekends	6352
degrees	6353
carmel	6354
robert	6355
luxury	6356
diagram	6357
palm	6358
##j	6359
bass	6360
##ko	6361
keeps	6362
daddy	6363
##cy	6364
however	6365
ghosts	6366
amazingly	6367
noah	6368
often	6369
finland	6370
##lly	6371
skating	6372
contact	6373
twisting	6374
arrogant	6375
warrior	6376
lasts	6377
aggressive	6378
statues	6379
##pan	6380
postage	6381
astronomy	6382
anymore	6383
night	6384
ninety	6385
witchcraft	6386
##ni	6387
weather	6388
##tter	6389
addiction	6390
dead	6391
##tist	6392
feet	6393
proves	6394
afraid	6395
##por	6396
murder	6397
majors	6398
boasts	6399
screams	6400
canary	6401
lyricist	6402
sidewalk	6403
handsome	6404
ensure	6405
raising	6406
artifacts	6407
weighed	6408
photos	6409
##ule	6410
##zine	6411
spun	6412
courtesy	6413
homework	6414
eva	6415
stumbled	6416
prosecutor	6417
everybody	6418
##omi	6419
hoax	6420
enable	6421
loneliness	6422
poll	6423
##fin	6424
##ica	6425
backs	6426
quarrel	6427
soul	6428
assistant	6429
shoot	6430
repairing	6431
muslim	6432
spiders	6433
gp	6434
:	6435
penny	6436
seriously	6437
works	6438
dramatic	6439
guessed	6440
ethical	6441
kgb	6442
chestnut	6443
assure	6444
##lining	6445
message	6446
poverty	6447
job	6448
##tagram	6449
steady	6450
divorced	6451
dies	6452
old	6453
##uled	6454
customs	6455
tasks	6456
preferred	6457
older	6458
treated	6459
others	6460
chewed	6461
tribes	6462
distressed	6463
witness	6464
actors	6465
feeds	6466
text	6467
surgery	6468
standard	6469
prevention	6470
challenges	6471
slang	6472
contained	6473
smoky	6474
hacker	6475
##tone	6476
##books	6477
presence	6478
medication	6479
de	6480
extreme	6481
agency	6482
##cky	6483
swarm	6484
cloud	6485
convenience	6486
tumbled	6487
##ret	6488
cl	6489
setting	6490
tries	6491
##ous	6492
sign	6493
clap	6494
drafted	6495
keyboards	6496
hook	6497
gazed	6498
forearm	6499
achieve	6500
##isance	6501
##hog	6502
hammer	6503
##brate	6504
surfaces	6505
blue	6506
##p	6507
leveled	6508
mobile	6509
caressed	6510
dimension	6511
frenchman	6512
premises	6513
creative	6514
br	6515
##ivity	6516
borrowed	6517
drying	6518
mainly	6519
insists	6520
grand	6521
overtime	6522
##see	6523
stepfather	6524
##op	6525
concerned	6526
7	6527
house	6528
journalists	6529
inventions	6530
revenge	6531
sister	6532
pulse	6533
blake	6534
##cal	6535
devoid	6536
##pped	6537
identified	6538
competed	6539
start	6540
limited	6541
achieving	6542
coral	6543
punish	6544
principles	6545
lining	6546
##ending	6547
reject	6548
feeder	6549
opt	6550
rolled	6551
judgment	6552
being	6553
##rah	6554
venture	6555
liv	6556
##sha	6557
rumored	6558
##iro	6559
alright	6560
ecological	6561
88	6562
hospitalized	6563
whistle	6564
receive	6565
accept	6566
##cut	6567
backup	6568
##ration	6569
##gling	6570
robber	6571
ya	6572
twentieth	6573
console	6574
kindness	6575
theirs	6576
##wed	6577
fourth	6578
catalan	6579
expression	6580
rust	6581
responses	6582
canada	6583
##nate	6584
execute	6585
##ski	6586
##gui	6587
pirates	6588
##oca	6589
##ape	6590
diamonds	6591
##ex	6592
##rb	6593
kidding	6594
order	6595
##ita	6596
commodity	6597
motor	6598
student	6599
spontaneous	6600
dealers	6601
worker	6602
confess	6603
worms	6604
430	6605
matters	6606
becoming	6607
lock	6608
sweets	6609
pi	6610
##bal	6611
pawn	6612
hypothesis	6613
culminated	6614
hopes	6615
committed	6616
blinds	6617
attraction	6618
aims	6619
todd	6620
clarify	6621
chapel	6622
neville	6623
respective	6624
moses	6625
historically	6626
eighteenth	6627
##low	6628
flexible	6629
caused	6630
cheating	6631
##jo	6632
owls	6633
kyoto	6634
prisoner	6635
1988	6636
drinks	6637
finals	6638
##box	6639
cave	6640
cooke	6641
enthusiasm	6642
dedicated	6643
difficult	6644
bags	6645
paradise	6646
disqualified	6647
cottage	6648
straighten	6649
clearing	6650
farm	6651
when	6652
rehab	6653
living	6654
sometimes	6655
hoped	6656
triggered	6657
fun	6658
sock	6659
gifted	6660
southernmost	6661
torture	6662
hates	6663
streets	6664
feels	6665
raw	6666
tough	6667
na	6668
extinct	6669
equation	6670
silk	6671
concentrate	6672
##ala	6673
assemble	6674
exhaust	6675
head	6676
sunday	6677
numb	6678
dismiss	6679
soy	6680
views	6681
penguins	6682
greece	6683
which	6684
snakes	6685
continued	6686
runner	6687
jumper	6688
place	6689
distinguishing	6690
##rat	6691
trusts	6692
las	6693
collect	6694
fashionable	6695
change	6696
grandpa	6697
circulating	6698
##ddled	6699
bequeathed	6700
records	6701
reduce	6702
moved	6703
##tive	6704
particular	6705
sorted	6706
discreet	6707
coke	6708
motors	6709
wondering	6710
analyze	6711
##chs	6712
homeless	6713
possession	6714
shop	6715
imagination	6716
##pal	6717
activists	6718
ambitions	6719
hero	6720
cottages	6721
ear	6722
evacuate	6723
mineral	6724
ga	6725
upon	6726
directory	6727
ray	6728
fans	6729
serious	6730
tricked	6731
quick	6732
naive	6733
##poo	6734
##sit	6735
jump	6736
landlord	6737
##ods	6738
heart	6739
medicine	6740
##les	6741
disappointing	6742
possessions	6743
##sy	6744
strong	6745
2008	6746
indigenous	6747
log	6748
aristotle	6749
consulted	6750
##zzle	6751
shattered	6752
biting	6753
corpse	6754
fumbled	6755
fiercely	6756
##grad	6757
pad	6758
learns	6759
population	6760
deity	6761
##ament	6762
##race	6763
prof	6764
hello	6765
filter	6766
every	6767
dazed	6768
figuring	6769
nonsense	6770
##aud	6771
##ound	6772
vacancy	6773
sucks	6774
economically	6775
four	6776
cage	6777
##iate	6778
import	6779
hooker	6780
exploit	6781
##hear	6782
code	6783
commit	6784
tally	6785
vegetable	6786
##inge	6787
immune	6788
##fully	6789
sponsors	6790
conviction	6791
ratio	6792
shift	6793
tr	6794
princes	6795
##vances	6796
consequence	6797
printer	6798
anti	6799
##gger	6800
maze	6801
oral	6802
simplified	6803
tells	6804
##walker	6805
##dell	6806
caucasian	6807
wipe	6808
expensive	6809
jerk	6810
litter	6811
park	6812
sophisticated	6813
restaurants	6814
##aya	6815
thirties	6816
arranged	6817
nagasaki	6818
vaguely	6819
suck	6820
tb	6821
vanity	6822
readily	6823
complex	6824
##ided	6825
##ncy	6826
rainbow	6827
##wi	6828
leaped	6829
##m	6830
persistent	6831
##usly	6832
spent	6833
november	6834
rest	6835
icon	6836
distortion	6837
##yl	6838
fears	6839
everyone	6840
journalist	6841
keeper	6842
photographed	6843
meiji	6844
letter	6845
forehead	6846
mustache	6847
tag	6848
tapping	6849
1996	6850
coe	6851
demo	6852
have	6853
roots	6854
growth	6855
##bus	6856
##ide	6857
resisted	6858
hazel	6859
##fast	6860
believing	6861
poet	6862
ur	6863
##uit	6864
##jure	6865
##dos	6866
stuck	6867
–	6868
shaped	6869
+	6870
locals	6871
##ds	6872
##gar	6873
steak	6874
few	6875
p	6876
theater	6877
consent	6878
jars	6879
aurora	6880
sabotage	6881
rhyme	6882
your	6883
cricket	6884
warnings	6885
employee	6886
employed	6887
footprints	6888
mile	6889
guest	6890
spelling	6891
baker	6892
categories	6893
above	6894
crown	6895
secretly	6896
hide	6897
imagining	6898
assault	6899
pure	6900
tango	6901
protesters	6902
eagle	6903
sympathetic	6904
cater	6905
centers	6906
finish	6907
elusive	6908
started	6909
rained	6910
various	6911
flags	6912
lavish	6913
disorders	6914
indication	6915
buyer	6916
notified	6917
nights	6918
professor	6919
sulfur	6920
apologized	6921
tube	6922
##mun	6923
plastic	6924
##mming	6925
empty	6926
cougars	6927
wr	6928
gps	6929
revenues	6930
mild	6931
security	6932
january	6933
diameter	6934
preventing	6935
venice	6936
nose	6937
daytime	6938
disregard	6939
gem	6940
discouraged	6941
monroe	6942
expects	6943
anthropologist	6944
advocated	6945
hail	6946
attach	6947
1st	6948
##tou	6949
initiation	6950
strolled	6951
pe	6952
struggle	6953
sect	6954
disclose	6955
supporters	6956
surfing	6957
obstacle	6958
lifelong	6959
healthy	6960
went	6961
irrelevant	6962
singing	6963
entering	6964
textbook	6965
dumped	6966
incorrect	6967
destroy	6968
##tray	6969
niger	6970
violation	6971
fray	6972
ra	6973
bait	6974
terms	6975
##od	6976
panda	6977
vampires	6978
comfort	6979
base	6980
irregular	6981
translate	6982
beer	6983
conceal	6984
lone	6985
slack	6986
came	6987
##icated	6988
vengeance	6989
uncertain	6990
visit	6991
rib	6992
achieved	6993
##ioms	6994
##ime	6995
pursue	6996
land	6997
mechanics	6998
cries	6999
founded	7000
preparations	7001
##icles	7002
advertisement	7003
daisy	7004
released	7005
wright	7006
polite	7007
##cks	7008
remote	7009
leads	7010
scrambled	7011
clip	7012
hemisphere	7013
according	7014
wicked	7015
bali	7016
stranger	7017
##zzled	7018
1990	7019
indifferent	7020
syntax	7021
ethiopia	7022
strive	7023
refer	7024
dumb	7025
monkeys	7026
indicate	7027
zipper	7028
twelve	7029
bone	7030
##o	7031
##tera	7032
##ably	7033
republican	7034
##isman	7035
broad	7036
hard	7037
dry	7038
surrounded	7039
melting	7040
chuck	7041
rescue	7042
choke	7043
cruel	7044
##lt	7045
guided	7046
barbarians	7047
proper	7048
ponds	7049
sink	7050
fact	7051
sent	7052
businessman	7053
##xi	7054
tu	7055
solve	7056
##bel	7057
certainly	7058
sphere	7059
disguised	7060
arthritis	7061
##nail	7062
met	7063
section	7064
##pour	7065
frog	7066
cry	7067
nuclear	7068
defective	7069
weighs	7070
##rred	7071
campaign	7072
iowa	7073
rubber	7074
oklahoma	7075
cloak	7076
someplace	7077
avenge	7078
atomic	7079
deaf	7080
##ffed	7081
trench	7082
##ment	7083
pumped	7084
endeavor	7085
warships	7086
channels	7087
lend	7088
bronze	7089
interrupt	7090
acquitted	7091
shout	7092
himalayas	7093
seated	7094
ladder	7095
quit	7096
snorted	7097
creating	7098
single	7099
lured	7100
terrifying	7101
transport	7102
sway	7103
orbit	7104
bell	7105
contribute	7106
cent	7107
spoke	7108
##ero	7109
tel	7110
vc	7111
blocked	7112
do	7113
dropping	7114
kennedy	7115
jr	7116
deserve	7117
plain	7118
baseball	7119
##dog	7120
##king	7121
crank	7122
mercy	7123
selling	7124
ridiculous	7125
teenagers	7126
wall	7127
server	7128
endless	7129
urged	7130
madrid	7131
poorer	7132
blinded	7133
sorry	7134
impress	7135
casualties	7136
report	7137
que	7138
preaching	7139
fairy	7140
directions	7141
landslide	7142
continent	7143
calm	7144
ukrainian	7145
crows	7146
mature	7147
mar	7148
denounced	7149
camera	7150
banquet	7151
position	7152
stubborn	7153
watches	7154
chiefs	7155
##mmy	7156
policemen	7157
##sion	7158
relief	7159
maintained	7160
stained	7161
supplies	7162
commended	7163
underground	7164
profile	7165
pupils	7166
floated	7167
universe	7168
genuine	7169
preserve	7170
punishment	7171
drawings	7172
bolt	7173
drew	7174
60	7175
smelling	7176
con	7177
plainly	7178
candidate	7179
grenade	7180
artist	7181
adopted	7182
tourists	7183
forever	7184
side	7185
cute	7186
fossil	7187
lamp	7188
##rase	7189
repairs	7190
##tangle	7191
ashamed	7192
disagree	7193
banks	7194
und	7195
you	7196
barber	7197
clicked	7198
splendid	7199
##9	7200
tack	7201
olive	7202
sounded	7203
fairies	7204
captured	7205
cars	7206
sho	7207
belongs	7208
queen	7209
length	7210
porcelain	7211
interpret	7212
clay	7213
pasture	7214
economical	7215
exiled	7216
##rop	7217
declining	7218
##c	7219
voluntarily	7220
alliance	7221
prey	7222
dodge	7223
##ping	7224
herman	7225
##odle	7226
spider	7227
screen	7228
##bby	7229
##ways	7230
##ification	7231
high	7232
25	7233
jungle	7234
switch	7235
commanded	7236
uncle	7237
##hon	7238
accumulated	7239
##writer	7240
##ial	7241
property	7242
until	7243
pounds	7244
mushrooms	7245
crowd	7246
passes	7247
##urable	7248
senate	7249
down	7250
##dling	7251
diversity	7252
##pop	7253
conspicuous	7254
barrier	7255
starbucks	7256
##ers	7257
##ap	7258
cycling	7259
##iche	7260
acquaintance	7261
bus	7262
appliances	7263
##ph	7264
based	7265
escape	7266
1958	7267
september	7268
taiwanese	7269
viewpoint	7270
lovely	7271
curled	7272
thanked	7273
tributaries	7274
lyrics	7275
hilarious	7276
picturesque	7277
participated	7278
touchdown	7279
adept	7280
declared	7281
shaved	7282
##ted	7283
beating	7284
plug	7285
overwhelmed	7286
##erson	7287
recycled	7288
##rained	7289
##uity	7290
questionable	7291
##rade	7292
thirty	7293
storage	7294
harvested	7295
##aking	7296
painful	7297
screw	7298
ounce	7299
resumed	7300
crossing	7301
intuitive	7302
justice	7303
reasonable	7304
##osa	7305
##holes	7306
louvre	7307
campaigning	7308
efforts	7309
specify	7310
democracy	7311
##imate	7312
loads	7313
##rove	7314
card	7315
married	7316
blood	7317
##mel	7318
composers	7319
post	7320
hotel	7321
elbows	7322
rustling	7323
damp	7324
acquire	7325
mentally	7326
concept	7327
mala	7328
##ffe	7329
curb	7330
remainder	7331
read	7332
ab	7333
story	7334
web	7335
223	7336
systematically	7337
warfare	7338
##weig	7339
chef	7340
stray	7341
##ching	7342
##tre	7343
##rize	7344
musicians	7345
maiden	7346
sociology	7347
sunny	7348
shooting	7349
evaluate	7350
factor	7351
concluded	7352
rattling	7353
separated	7354
planted	7355
chosen	7356
rid	7357
collaboration	7358
pronunciation	7359
sweeping	7360
sweating	7361
##ano	7362
trump	7363
athlete	7364
parent	7365
mammal	7366
improvised	7367
nucleus	7368
##rted	7369
slashed	7370
number	7371
literature	7372
unique	7373
ink	7374
##one	7375
hired	7376
dr	7377
%	7378
groundbreaking	7379
quicker	7380
mt	7381
reinforcements	7382
people	7383
portable	7384
packages	7385
implication	7386
##ida	7387
rescuing	7388
poker	7389
outlawed	7390
sq	7391
##ating	7392
echoed	7393
idle	7394
##iers	7395
downstream	7396
handling	7397
typed	7398
opposition	7399
flea	7400
dev	7401
curiously	7402
publisher	7403
industry	7404
##ck	7405
brat	7406
contestant	7407
sisters	7408
##itate	7409
dissatisfied	7410
##ple	7411
##do	7412
professors	7413
taught	7414
optional	7415
follows	7416
fox	7417
peeling	7418
frames	7419
only	7420
kind	7421
##ub	7422
planes	7423
varies	7424
##tick	7425
##sume	7426
painters	7427
##gs	7428
prefer	7429
treasure	7430
coastal	7431
shortened	7432
##rous	7433
cheer	7434
learned	7435
##land	7436
rio	7437
##utable	7438
dress	7439
##xide	7440
sounds	7441
unfortunate	7442
handcuffs	7443
exposing	7444
astonishment	7445
connects	7446
calmly	7447
compared	7448
maybe	7449
tick	7450
inferior	7451
mythology	7452
supportive	7453
interfering	7454
defeated	7455
flinched	7456
politics	7457
penalty	7458
schools	7459
tradition	7460
sky	7461
machines	7462
cyclist	7463
filming	7464
##ology	7465
autobiography	7466
hooked	7467
th	7468
infant	7469
ashore	7470
1995	7471
ev	7472
1939	7473
defending	7474
disciplined	7475
fellows	7476
fluent	7477
wounds	7478
targets	7479
gaze	7480
caution	7481
terribly	7482
constructive	7483
versa	7484
relieve	7485
denies	7486
partner	7487
sucker	7488
closing	7489
saturated	7490
pursuit	7491
puddle	7492
specialized	7493
switched	7494
toys	7495
extract	7496
escaped	7497
reform	7498
hounds	7499
##ines	7500
##ai	7501
richer	7502
ali	7503
hope	7504
hundreds	7505
harsh	7506
estate	7507
probability	7508
feel	7509
drowned	7510
##bble	7511
current	7512
torment	7513
45th	7514
barking	7515
third	7516
nos	7517
proposition	7518
better	7519
observe	7520
winds	7521
stinging	7522
retail	7523
46	7524
##ibly	7525
bitterness	7526
nurse	7527
amount	7528
##iza	7529
fortunate	7530
phrase	7531
sacred	7532
lincoln	7533
snatched	7534
unfair	7535
numerous	7536
broadly	7537
investigate	7538
internet	7539
inch	7540
gold	7541
scratched	7542
choked	7543
batteries	7544
token	7545
reliable	7546
yell	7547
vacuum	7548
greeting	7549
bodyguard	7550
furry	7551
##al	7552
ligament	7553
disciples	7554
vienna	7555
hunting	7556
ho	7557
compute	7558
diego	7559
convicted	7560
activation	7561
hundred	7562
tech	7563
sunrise	7564
brought	7565
quoted	7566
##bber	7567
##on	7568
team	7569
resigning	7570
man	7571
##gged	7572
pee	7573
class	7574
attends	7575
##yp	7576
bears	7577
sharks	7578
plate	7579
allegedly	7580
savior	7581
trunk	7582
##nt	7583
tie	7584
tremble	7585
ankara	7586
##vant	7587
dinosaurs	7588
networking	7589
grades	7590
brain	7591
think	7592
good	7593
sin	7594
sato	7595
provide	7596
130	7597
bedrooms	7598
snowfall	7599
dairy	7600
groans	7601
effort	7602
##ya	7603
beloved	7604
fair	7605
develops	7606
apply	7607
even	7608
interested	7609
rush	7610
##1	7611
freaks	7612
lies	7613
usable	7614
ka	7615
##hale	7616
##kers	7617
##rified	7618
factories	7619
1972	7620
belief	7621
images	7622
##opa	7623
stops	7624
determining	7625
harvesting	7626
columbus	7627
naked	7628
tests	7629
restart	7630
morocco	7631
remarkable	7632
bite	7633
fifteen	7634
worthy	7635
instinctively	7636
no	7637
torch	7638
blast	7639
uploaded	7640
bathing	7641
seventh	7642
##use	7643
neat	7644
approaches	7645
explosions	7646
pier	7647
painted	7648
assume	7649
created	7650
teenage	7651
##а	7652
zoology	7653
tidy	7654
arteries	7655
goose	7656
microphone	7657
finger	7658
exist	7659
flames	7660
extend	7661
alaska	7662
leak	7663
obtained	7664
cheese	7665
fire	7666
speaks	7667
boring	7668
encouraging	7669
utilized	7670
weren	7671
permit	7672
croatia	7673
ferris	7674
ahead	7675
gender	7676
elegant	7677
warmed	7678
desperate	7679
marriage	7680
horrified	7681
conduct	7682
entitled	7683
newton	7684
##ante	7685
relationships	7686
god	7687
repaired	7688
hardship	7689
chaotic	7690
fee	7691
activated	7692
yesterday	7693
peasant	7694
prisons	7695
drama	7696
cough	7697
trading	7698
coat	7699
possibility	7700
discs	7701
components	7702
wakes	7703
dictionary	7704
showing	7705
fever	7706
##ddy	7707
##work	7708
deprived	7709
breast	7710
answering	7711
herself	7712
directs	7713
quo	7714
hawaii	7715
spokesman	7716
dreams	7717
mighty	7718
blasting	7719
mosquito	7720
soccer	7721
##act	7722
consequences	7723
iron	7724
europe	7725
tips	7726
wonders	7727
prediction	7728
killed	7729
finnish	7730
survives	7731
conquer	7732
pup	7733
gasped	7734
##ls	7735
##uck	7736
##lace	7737
pattern	7738
shuttle	7739
explorers	7740
demanded	7741
spacious	7742
volunteer	7743
blaming	7744
##osition	7745
solid	7746
illustration	7747
pounded	7748
suppressed	7749
raced	7750
friday	7751
##ran	7752
offenders	7753
swear	7754
##mates	7755
cambodia	7756
assist	7757
reagan	7758
latitude	7759
remorse	7760
picture	7761
rather	7762
lil	7763
##cha	7764
crept	7765
sleepy	7766
##ver	7767
carried	7768
rainforest	7769
bends	7770
lurched	7771
##ones	7772
swelling	7773
##ed	7774
’	7775
access	7776
slowly	7777
army	7778
unite	7779
usb	7780
##ump	7781
si	7782
realize	7783
recaptured	7784
shall	7785
endeavors	7786
intimidated	7787
##hearted	7788
drinking	7789
regulations	7790
stories	7791
kansas	7792
canyon	7793
boy	7794
won	7795
treason	7796
doubtful	7797
sliced	7798
had	7799
##hetic	7800
og	7801
realizes	7802
system	7803
flickered	7804
appetite	7805
earliest	7806
shi	7807
reservation	7808
human	7809
drunk	7810
##eak	7811
compose	7812
condo	7813
screwed	7814
aired	7815
independence	7816
safety	7817
statesman	7818
its	7819
eu	7820
##zi	7821
river	7822
beaten	7823
grinning	7824
occupied	7825
mon	7826
replacement	7827
suggestions	7828
noble	7829
vicious	7830
pasta	7831
bit	7832
headquarters	7833
primary	7834
lighting	7835
carriage	7836
##zz	7837
coarse	7838
eyebrows	7839
burns	7840
winston	7841
gives	7842
disc	7843
resorts	7844
girlfriend	7845
##cia	7846
ruins	7847
shiny	7848
dollar	7849
unbelievable	7850
thirteen	7851
grape	7852
worlds	7853
-	7854
unusually	7855
folks	7856
origin	7857
granting	7858
apart	7859
watch	7860
timetable	7861
deter	7862
reformed	7863
weakened	7864
educational	7865
insisted	7866
authorities	7867
##ignant	7868
foreign	7869
corrections	7870
##hem	7871
mania	7872
mint	7873
accurate	7874
despair	7875
35	7876
fear	7877
sun	7878
##ych	7879
bribe	7880
stain	7881
elastic	7882
exports	7883
tame	7884
needles	7885
invited	7886
drained	7887
phoenix	7888
drown	7889
enthusiastic	7890
diary	7891
thumb	7892
happen	7893
ruin	7894
instruction	7895
symphonies	7896
complete	7897
supports	7898
attachment	7899
##eit	7900
##ive	7901
resistance	7902
seal	7903
blankly	7904
declare	7905
wi	7906
avoids	7907
literary	7908
divides	7909
##hit	7910
funny	7911
dawn	7912
##rel	7913
saved	7914
##anies	7915
receiving	7916
##sol	7917
burger	7918
##tters	7919
marked	7920
calculus	7921
##ned	7922
merchandise	7923
thrust	7924
bees	7925
creditors	7926
emerged	7927
earth	7928
couldn	7929
sh	7930
snake	7931
footprint	7932
classical	7933
##uss	7934
pipe	7935
narrows	7936
compatible	7937
thinkers	7938
wizard	7939
rug	7940
##no	7941
hurt	7942
##weight	7943
masters	7944
weeds	7945
intimidating	7946
poland	7947
charged	7948
legends	7949
assigned	7950
receptionist	7951
ringing	7952
swung	7953
compare	7954
##rdi	7955
119	7956
sealed	7957
##mba	7958
##dies	7959
july	7960
tome	7961
oak	7962
adams	7963
writer	7964
dotted	7965
idol	7966
superb	7967
mp3	7968
mama	7969
decidedly	7970
chorus	7971
birch	7972
handball	7973
##rs	7974
several	7975
search	7976
##ise	7977
observing	7978
plans	7979
stakes	7980
informed	7981
saber	7982
##ivated	7983
booklet	7984
unable	7985
embark	7986
packs	7987
glide	7988
draws	7989
operating	7990
disappointed	7991
bending	7992
failure	7993
atm	7994
look	7995
gates	7996
speed	7997
accompany	7998
exclude	7999
twist	8000
machinery	8001
chinatown	8002
stitch	8003
outskirts	8004
compelled	8005
##icon	8006
##rie	8007
grateful	8008
tennis	8009
latest	8010
ancestor	8011
fast	8012
tournament	8013
comment	8014
sermon	8015
comparable	8016
range	8017
##hand	8018
detained	8019
pressures	8020
tal	8021
op	8022
problems	8023
laser	8024
##rth	8025
attract	8026
convict	8027
late	8028
##sat	8029
##table	8030
bodily	8031
simpler	8032
fabulous	8033
medieval	8034
suffers	8035
screamed	8036
cu	8037
immortality	8038
teams	8039
fix	8040
animals	8041
locked	8042
liquids	8043
pitch	8044
showed	8045
ease	8046
##zy	8047
spaghetti	8048
rot	8049
comfortable	8050
disrupt	8051
##tled	8052
shadowed	8053
newest	8054
stall	8055
marketplace	8056
yield	8057
container	8058
delicious	8059
##ock	8060
car	8061
hill	8062
thunder	8063
specialist	8064
##ack	8065
1797	8066
narrow	8067
##crow	8068
mechanism	8069
automotive	8070
amazon	8071
wasting	8072
cliff	8073
sorority	8074
##ook	8075
prescription	8076
watched	8077
pamphlet	8078
generosity	8079
awaiting	8080
so	8081
groaned	8082
##out	8083
volcanic	8084
shadow	8085
sees	8086
approached	8087
lasted	8088
;	8089
display	8090
criticisms	8091
hostages	8092
figure	8093
minded	8094
example	8095
mission	8096
wholly	8097
lectures	8098
##ics	8099
info	8100
##hine	8101
plastics	8102
prophecy	8103
shoved	8104
nation	8105
##ine	8106
mind	8107
answer	8108
##rization	8109
teammates	8110
friends	8111
jogging	8112
##tag	8113
1983	8114
sea	8115
redundant	8116
magic	8117
bench	8118
acquainted	8119
extinction	8120
multi	8121
external	8122
ego	8123
##rai	8124
agreeing	8125
sequel	8126
##sca	8127
naples	8128
investing	8129
1970s	8130
if	8131
orchid	8132
sober	8133
separate	8134
byron	8135
satellites	8136
driven	8137
captivity	8138
proficient	8139
zone	8140
catch	8141
activist	8142
citizens	8143
syrup	8144
##iness	8145
83	8146
firmly	8147
broke	8148
persuade	8149
largely	8150
mandatory	8151
wo	8152
smoking	8153
##hir	8154
romance	8155
hat	8156
bills	8157
cheerful	8158
want	8159
mars	8160
##cre	8161
handed	8162
attracted	8163
african	8164
church	8165
cat	8166
male	8167
coats	8168
worse	8169
income	8170
strange	8171
origins	8172
poses	8173
definition	8174
joking	8175
revolution	8176
deadline	8177
gettysburg	8178
density	8179
##ci	8180
shooter	8181
surgeon	8182
greeks	8183
spilled	8184
dolphins	8185
carpet	8186
##re	8187
fifth	8188
dyed	8189
50	8190
meanings	8191
masses	8192
deserves	8193
renewable	8194
popularity	8195
tomb	8196
focusing	8197
blocks	8198
moment	8199
tales	8200
obsessed	8201
individually	8202
runners	8203
absorb	8204
beautiful	8205
##phone	8206
helps	8207
experts	8208
containing	8209
abraham	8210
portuguese	8211
##ave	8212
knee	8213
missed	8214
became	8215
unless	8216
16	8217
gain	8218
##founded	8219
interesting	8220
rides	8221
managed	8222
region	8223
##ll	8224
flushed	8225
period	8226
cord	8227
16th	8228
florence	8229
##ergy	8230
pushing	8231
themselves	8232
feared	8233
drunken	8234
liberties	8235
jasmine	8236
men	8237
stick	8238
obeyed	8239
saying	8240
paris	8241
damages	8242
goodnight	8243
seats	8244
moist	8245
##sing	8246
sleeves	8247
##claim	8248
hokkaido	8249
graceful	8250
disturbed	8251
sw	8252
##nish	8253
##ch	8254
wish	8255
downs	8256
shaking	8257
implying	8258
knees	8259
##u	8260
lottery	8261
attained	8262
salt	8263
railways	8264
rented	8265
ruled	8266
happens	8267
season	8268
deep	8269
supper	8270
despite	8271
refuses	8272
handkerchief	8273
id	8274
admits	8275
forte	8276
li	8277
operator	8278
refurbished	8279
sailing	8280
roof	8281
##oon	8282
sudden	8283
vinci	8284
##izing	8285
study	8286
##hed	8287
##iri	8288
halfway	8289
although	8290
raging	8291
costly	8292
memories	8293
rocker	8294
seoul	8295
warehouse	8296
##ssion	8297
1814	8298
regions	8299
broom	8300
willing	8301
bare	8302
best	8303
score	8304
economics	8305
stimulating	8306
condor	8307
##field	8308
##fu	8309
##sher	8310
ware	8311
##sor	8312
worth	8313
syllable	8314
##feit	8315
life	8316
relevance	8317
gene	8318
abnormal	8319
dishes	8320
intentionally	8321
euros	8322
ambushed	8323
mcdonald	8324
graduating	8325
connected	8326
ll	8327
amounts	8328
magazine	8329
concerto	8330
##lim	8331
pipes	8332
addicted	8333
tak	8334
##og	8335
##bid	8336
granted	8337
plead	8338
expedition	8339
warsaw	8340
smug	8341
rude	8342
lazy	8343
determine	8344
loud	8345
caught	8346
rushes	8347
memory	8348
impressive	8349
gardener	8350
specialists	8351
##go	8352
stared	8353
gross	8354
crowds	8355
happier	8356
together	8357
champagne	8358
seductive	8359
ox	8360
kan	8361
##ique	8362
adjustment	8363
rebellion	8364
art	8365
succeeded	8366
max	8367
##anto	8368
##ami	8369
mac	8370
genes	8371
far	8372
efficiency	8373
##ist	8374
spin	8375
revolves	8376
win	8377
hilltop	8378
impatient	8379
salary	8380
understood	8381
embarrassed	8382
prince	8383
##ce	8384
bikini	8385
employers	8386
hesitate	8387
policeman	8388
photograph	8389
dissolve	8390
1610	8391
controls	8392
predators	8393
los	8394
greene	8395
/	8396
washington	8397
noticeably	8398
catholics	8399
pretended	8400
site	8401
pagoda	8402
historian	8403
##ool	8404
completely	8405
1935	8406
picasso	8407
##ari	8408
cure	8409
fought	8410
wax	8411
sharpe	8412
brown	8413
##tain	8414
boats	8415
intellectual	8416
hose	8417
puzzles	8418
discarded	8419
sneak	8420
freshwater	8421
reflect	8422
challenged	8423
decor	8424
walks	8425
details	8426
fulfill	8427
boxer	8428
shake	8429
cleaned	8430
doing	8431
strength	8432
prove	8433
long	8434
botanist	8435
##uta	8436
domination	8437
colorful	8438
fl	8439
grams	8440
##ulate	8441
##cke	8442
vanilla	8443
hanging	8444
closely	8445
clerk	8446
##zing	8447
lady	8448
luc	8449
customers	8450
##less	8451
verbs	8452
bust	8453
crowded	8454
sucked	8455
braid	8456
123	8457
1950s	8458
yokohama	8459
privately	8460
##ka	8461
at	8462
cardiovascular	8463
##ri	8464
citizen	8465
marry	8466
phase	8467
curly	8468
medium	8469
progress	8470
sic	8471
bleed	8472
computational	8473
southern	8474
fries	8475
introduce	8476
nap	8477
yeah	8478
circulation	8479
assignment	8480
driver	8481
virus	8482
buff	8483
##ear	8484
endured	8485
commission	8486
makeshift	8487
coast	8488
limits	8489
reasonably	8490
18	8491
ottawa	8492
ride	8493
##tro	8494
fruit	8495
terror	8496
burma	8497
wearing	8498
##ku	8499
chatting	8500
grammar	8501
##est	8502
admire	8503
emotionally	8504
orleans	8505
warn	8506
jumped	8507
memo	8508
grow	8509
broker	8510
existed	8511
sharp	8512
about	8513
recommend	8514
height	8515
surrendered	8516
chile	8517
prayers	8518
##de	8519
hypnotic	8520
##icides	8521
fished	8522
ivory	8523
chu	8524
centimeters	8525
copper	8526
partners	8527
##life	8528
mormon	8529
woken	8530
weekend	8531
lap	8532
mike	8533
easy	8534
drives	8535
hint	8536
##ad	8537
babies	8538
took	8539
examined	8540
influences	8541
spat	8542
objects	8543
complicated	8544
angles	8545
1933	8546
##lative	8547
climatic	8548
contributed	8549
powerless	8550
enemies	8551
##aves	8552
ineffective	8553
expand	8554
##v	8555
hardest	8556
boyfriend	8557
##fi	8558
##tious	8559
improves	8560
mold	8561
held	8562
ballet	8563
bankrupt	8564
headache	8565
reservations	8566
wandered	8567
##back	8568
enterprises	8569
organisms	8570
tables	8571
rai	8572
peanuts	8573
##rup	8574
wartime	8575
cheat	8576
sa	8577
terrific	8578
hunts	8579
synonym	8580
attributes	8581
polished	8582
altar	8583
achievements	8584
astro	8585
narrowly	8586
sugar	8587
honor	8588
searching	8589
presents	8590
losses	8591
bound	8592
told	8593
##uis	8594
kicked	8595
adverse	8596
washed	8597
##list	8598
##lase	8599
##cus	8600
please	8601
constellation	8602
patting	8603
exploded	8604
##6	8605
out	8606
pond	8607
spinning	8608
peeled	8609
coffee	8610
predicted	8611
flip	8612
extraction	8613
warning	8614
basque	8615
structure	8616
plots	8617
perished	8618
smarter	8619
vowels	8620
expressing	8621
bounced	8622
cracked	8623
phd	8624
##iga	8625
forces	8626
risen	8627
##ji	8628
answers	8629
tiny	8630
robot	8631
gigantic	8632
##yo	8633
rock	8634
lives	8635
hamlet	8636
and	8637
brains	8638
terrorists	8639
amsterdam	8640
leather	8641
##ceptive	8642
assisted	8643
##lance	8644
candle	8645
helens	8646
disposed	8647
##wise	8648
nest	8649
obviously	8650
obe	8651
maria	8652
##port	8653
aw	8654
64	8655
doorway	8656
knocked	8657
through	8658
##cco	8659
rabbits	8660
month	8661
presenting	8662
plot	8663
weeks	8664
zurich	8665
lets	8666
argued	8667
irs	8668
detect	8669
thailand	8670
ecosystems	8671
major	8672
karma	8673
tissue	8674
showers	8675
ti	8676
wise	8677
iraq	8678
humanities	8679
crouched	8680
pursuing	8681
resort	8682
bi	8683
trout	8684
powder	8685
fall	8686
sung	8687
giving	8688
terrified	8689
announcer	8690
traffic	8691
faced	8692
damage	8693
##her	8694
complaining	8695
past	8696
walker	8697
##mas	8698
travelers	8699
##be	8700
##int	8701
professional	8702
vertical	8703
noticeable	8704
valuable	8705
coughing	8706
threw	8707
ram	8708
branches	8709
archeological	8710
appropriate	8711
methods	8712
compete	8713
towels	8714
tenth	8715
fluids	8716
phrases	8717
measuring	8718
aiding	8719
trembled	8720
flights	8721
film	8722
communicate	8723
okinawa	8724
belle	8725
##chio	8726
##movable	8727
badly	8728
flock	8729
banjo	8730
rattle	8731
##rong	8732
technological	8733
zambia	8734
##ggles	8735
nude	8736
flinch	8737
##au	8738
sharply	8739
automatic	8740
##ge	8741
how	8742
bitten	8743
##del	8744
##heard	8745
digest	8746
propeller	8747
precious	8748
##fo	8749
religious	8750
holland	8751
##istic	8752
bring	8753
proceeding	8754
aside	8755
steals	8756
stupid	8757
##test	8758
bro	8759
blooms	8760
yellow	8761
rocky	8762
##uchi	8763
defended	8764
traded	8765
gangster	8766
painfully	8767
##tern	8768
album	8769
carpenter	8770
brake	8771
##us	8772
##eda	8773
downtown	8774
##tle	8775
examinations	8776
wisdom	8777
split	8778
preacher	8779
nature	8780
crimes	8781
degree	8782
thief	8783
meeting	8784
playful	8785
scanned	8786
steal	8787
pig	8788
bursting	8789
shortages	8790
chamberlain	8791
gallons	8792
he	8793
electrical	8794
bill	8795
forget	8796
reason	8797
##chi	8798
##owed	8799
appointed	8800
tide	8801
stand	8802
certain	8803
community	8804
##tively	8805
refugees	8806
temples	8807
retire	8808
##bone	8809
outraged	8810
slain	8811
bin	8812
plenty	8813
kinds	8814
character	8815
increased	8816
havoc	8817
gun	8818
sense	8819
clint	8820
conversation	8821
humanity	8822
punished	8823
before	8824
climbs	8825
marched	8826
underwent	8827
##oue	8828
sued	8829
##for	8830
barred	8831
ponder	8832
wildly	8833
developed	8834
weapons	8835
##ides	8836
britain	8837
affect	8838
haste	8839
investment	8840
cup	8841
pointless	8842
ras	8843
contemporary	8844
embryo	8845
difference	8846
don	8847
strain	8848
wavelength	8849
presented	8850
singers	8851
impose	8852
lump	8853
##osh	8854
united	8855
republic	8856
traveling	8857
pollution	8858
gentlemen	8859
take	8860
pull	8861
##word	8862
##tched	8863
reads	8864
##cher	8865
proposal	8866
permanent	8867
blame	8868
##hes	8869
penetrated	8870
confused	8871
##like	8872
prosecuted	8873
##k	8874
remained	8875
rack	8876
pockets	8877
guy	8878
##hor	8879
##sms	8880
enemy	8881
hot	8882
##cta	8883
produce	8884
mustang	8885
kissing	8886
##rized	8887
news	8888
austria	8889
pioneer	8890
doubted	8891
paw	8892
crime	8893
final	8894
scholars	8895
keys	8896
peacock	8897
guarding	8898
hanged	8899
nik	8900
designed	8901
fireplace	8902
##dal	8903
abrupt	8904
trans	8905
reserve	8906
match	8907
yourself	8908
ceased	8909
detective	8910
administrator	8911
noted	8912
rooftop	8913
trunks	8914
schooling	8915
snow	8916
competition	8917
since	8918
lines	8919
booths	8920
wave	8921
lifetime	8922
gasps	8923
airline	8924
healed	8925
permission	8926
bent	8927
##igan	8928
quality	8929
##ic	8930
software	8931
design	8932
stimulation	8933
wheat	8934
retirement	8935
awful	8936
french	8937
manuel	8938
holiday	8939
##water	8940
tattooed	8941
blog	8942
combination	8943
supervisor	8944
centuries	8945
marseille	8946
tortured	8947
spreading	8948
wealth	8949
brightened	8950
apples	8951
##iated	8952
mans	8953
questioning	8954
bravery	8955
heels	8956
function	8957
silky	8958
new	8959
frankly	8960
risks	8961
plane	8962
gentleman	8963
kong	8964
compositions	8965
undercover	8966
soared	8967
index	8968
##ey	8969
glue	8970
snails	8971
27	8972
merry	8973
intelligent	8974
40	8975
lays	8976
##ur	8977
severed	8978
an	8979
complement	8980
abolished	8981
contaminated	8982
egg	8983
twists	8984
council	8985
originated	8986
articles	8987
goal	8988
operation	8989
ropes	8990
forty	8991
businesses	8992
send	8993
these	8994
mankind	8995
colored	8996
##rave	8997
protected	8998
qualified	8999
cradle	9000
loyal	9001
creations	9002
1600	9003
easily	9004
abu	9005
turtles	9006
dolls	9007
##pha	9008
doubled	9009
underwear	9010
forming	9011
game	9012
nocturnal	9013
karim	9014
imp	9015
ownership	9016
allowed	9017
##pe	9018
pity	9019
lobes	9020
##ces	9021
visibly	9022
install	9023
cultures	9024
nine	9025
spectacular	9026
##dm	9027
armenian	9028
lungs	9029
slaughter	9030
loosen	9031
operate	9032
egyptians	9033
fined	9034
scientific	9035
material	9036
##sto	9037
inherit	9038
brunette	9039
regularly	9040
mentioned	9041
yes	9042
prem	9043
##ba	9044
family	9045
saint	9046
songwriter	9047
angle	9048
bai	9049
formula	9050
twice	9051
checking	9052
##washed	9053
ruined	9054
foul	9055
cooperative	9056
ordinary	9057
sensing	9058
odds	9059
sick	9060
railroad	9061
abe	9062
invaded	9063
sooner	9064
apparently	9065
congress	9066
##write	9067
receives	9068
foreigners	9069
sporting	9070
nowhere	9071
bull	9072
shakes	9073
hated	9074
cooks	9075
detail	9076
blossoms	9077
substance	9078
reaches	9079
beginning	9080
sumo	9081
##sible	9082
##sta	9083
raged	9084
rates	9085
informant	9086
permitted	9087
kiss	9088
imperative	9089
##vo	9090
##bi	9091
psychic	9092
financial	9093
wished	9094
monitor	9095
obsolete	9096
boundary	9097
cheaper	9098
questioned	9099
kitchens	9100
traced	9101
fractured	9102
passive	9103
##stick	9104
##ma	9105
village	9106
mentioning	9107
##tten	9108
##ciful	9109
convention	9110
phenomena	9111
showered	9112
dislike	9113
volume	9114
causes	9115
aids	9116
neighbor	9117
user	9118
stalled	9119
titanic	9120
revenue	9121
11th	9122
bike	9123
supervised	9124
##eptive	9125
demands	9126
##ced	9127
vinegar	9128
become	9129
salad	9130
studying	9131
bid	9132
barely	9133
priorities	9134
clearly	9135
thing	9136
buses	9137
directed	9138
least	9139
associate	9140
##zhou	9141
samurai	9142
##working	9143
ave	9144
pine	9145
mentor	9146
jackson	9147
driveway	9148
frantic	9149
orphans	9150
unrelated	9151
soda	9152
row	9153
exploited	9154
##ight	9155
distract	9156
kyushu	9157
marvelous	9158
ago	9159
basically	9160
tail	9161
dropped	9162
##loaded	9163
##dre	9164
tab	9165
wings	9166
shack	9167
pool	9168
##hra	9169
yo	9170
playoffs	9171
journey	9172
squash	9173
##date	9174
sure	9175
##ease	9176
squinted	9177
exceptions	9178
scary	9179
cracking	9180
accountant	9181
color	9182
reborn	9183
symmetrical	9184
australians	9185
peculiar	9186
im	9187
encouraged	9188
victim	9189
policies	9190
prairie	9191
disgrace	9192
ton	9193
date	9194
blonde	9195
flashing	9196
stage	9197
idea	9198
guard	9199
let	9200
floor	9201
warmer	9202
darker	9203
consuming	9204
celebrating	9205
claimed	9206
foot	9207
ticket	9208
##ressed	9209
scraped	9210
netherlands	9211
curves	9212
##nified	9213
gown	9214
temperate	9215
vain	9216
##scribe	9217
##crat	9218
amnesia	9219
hudson	9220
##ill	9221
tourism	9222
##missible	9223
reflecting	9224
bled	9225
beginnings	9226
spells	9227
##vin	9228
fly	9229
clear	9230
forest	9231
##end	9232
auditorium	9233
incredible	9234
limb	9235
bells	9236
top	9237
aquarium	9238
##eding	9239
simplicity	9240
stepmother	9241
unison	9242
episode	9243
idiot	9244
##gic	9245
##berg	9246
on	9247
brazilian	9248
errors	9249
vigorous	9250
##ption	9251
bold	9252
##fly	9253
bedroom	9254
classmate	9255
potential	9256
roads	9257
shadows	9258
otherwise	9259
va	9260
##ient	9261
bliss	9262
kyiv	9263
petals	9264
##tas	9265
leonardo	9266
couples	9267
deck	9268
indian	9269
radioactive	9270
loans	9271
construction	9272
##mp	9273
shaken	9274
pretend	9275
?	9276
opinion	9277
peninsula	9278
dive	9279
cities	9280
myths	9281
##piece	9282
##jack	9283
clue	9284
blinding	9285
spraying	9286
yelled	9287
serial	9288
begin	9289
anyway	9290
19	9291
greedy	9292
14	9293
##cake	9294
see	9295
criminals	9296
trigger	9297
downloaded	9298
aggravated	9299
protect	9300
pneumonia	9301
petty	9302
leading	9303
language	9304
necessarily	9305
blades	9306
part	9307
consider	9308
techno	9309
maintain	9310
##up	9311
earthquakes	9312
ultimately	9313
arabs	9314
drowning	9315
strip	9316
object	9317
##tie	9318
generations	9319
villages	9320
counting	9321
harmed	9322
affordable	9323
ve	9324
ping	9325
sentences	9326
ditch	9327
mona	9328
weekdays	9329
irrational	9330
##pt	9331
president	9332
waste	9333
##awa	9334
strangely	9335
fashion	9336
courtyard	9337
##rri	9338
annual	9339
tensions	9340
cocktail	9341
interest	9342
ball	9343
over	9344
ama	9345
##cho	9346
clouds	9347
##nies	9348
thus	9349
rebelled	9350
cavity	9351
obligation	9352
issued	9353
##47	9354
##ons	9355
pancakes	9356
candidates	9357
grandson	9358
deeds	9359
##hend	9360
lawyer	9361
tray	9362
superiority	9363
boarded	9364
business	9365
leg	9366
##ies	9367
mom	9368
paid	9369
mall	9370
brilliant	9371
##ding	9372
moral	9373
eater	9374
mornings	9375
town	9376
strings	9377
tubes	9378
fin	9379
congregation	9380
materials	9381
##horn	9382
cursed	9383
foods	9384
valleys	9385
anger	9386
farms	9387
residents	9388
horns	9389
demonstration	9390
expecting	9391
##sm	9392
binding	9393
paragraph	9394
##cts	9395
victory	9396
infectious	9397
##ria	9398
hostage	9399
galleries	9400
waist	9401
##ult	9402
ireland	9403
slide	9404
public	9405
kick	9406
winter	9407
##tis	9408
reckless	9409
##as	9410
stabilized	9411
mansion	9412
snail	9413
firm	9414
terminal	9415
voice	9416
infinite	9417
su	9418
##ee	9419
productivity	9420
secrecy	9421
add	9422
institution	9423
camped	9424
wet	9425
workplace	9426
inaugural	9427
reacted	9428
skyscraper	9429
loss	9430
decade	9431
visiting	9432
scorpion	9433
available	9434
lending	9435
00	9436
trumpet	9437
target	9438
##los	9439
petersburg	9440
known	9441
involve	9442
deaths	9443
calculated	9444
camps	9445
##gina	9446
evolution	9447
meetings	9448
chest	9449
downstairs	9450
fury	9451
congressional	9452
appearances	9453
passage	9454
surprising	9455
chart	9456
girl	9457
rosa	9458
skinny	9459
ha	9460
not	9461
disasters	9462
follower	9463
flora	9464
tendency	9465
relatives	9466
branded	9467
##sc	9468
vip	9469
##co	9470
unusual	9471
society	9472
bloody	9473
balls	9474
purchase	9475
injection	9476
##lish	9477
rays	9478
ignorant	9479
offering	9480
credit	9481
getting	9482
discussing	9483
obesity	9484
chair	9485
correspondence	9486
1830	9487
geography	9488
shots	9489
doors	9490
el	9491
winters	9492
priest	9493
wreckage	9494
un	9495
airport	9496
pleading	9497
june	9498
developing	9499
plants	9500
personal	9501
covering	9502
notorious	9503
happiness	9504
buzz	9505
government	9506
passenger	9507
awake	9508
dentist	9509
garrison	9510
##chemist	9511
mud	9512
paranoid	9513
instinct	9514
rifle	9515
##pack	9516
rein	9517
cunning	9518
##ounded	9519
profession	9520
overlook	9521
##ob	9522
jealousy	9523
typical	9524
chance	9525
san	9526
enjoyed	9527
largest	9528
shrimp	9529
this	9530
2013	9531
grip	9532
application	9533
stairs	9534
couple	9535
acknowledge	9536
modified	9537
voices	9538
relations	9539
##ess	9540
##vies	9541
gave	9542
229	9543
provinces	9544
desirable	9545
destroyed	9546
soup	9547
spanish	9548
necklace	9549
disappear	9550
dublin	9551
##ete	9552
boards	9553
played	9554
##ores	9555
airplanes	9556
grapes	9557
chapter	9558
passengers	9559
drum	9560
puts	9561
marginal	9562
resulted	9563
blackmail	9564
participants	9565
800	9566
##bat	9567
wars	9568
guinea	9569
assignments	9570
elephant	9571
exceed	9572
homeland	9573
multiple	9574
hostess	9575
bearing	9576
##oa	9577
proposes	9578
king	9579
songs	9580
general	9581
awesome	9582
scoffed	9583
sponge	9584
assassinate	9585
bandits	9586
motion	9587
surprise	9588
recovery	9589
##ense	9590
inquired	9591
solitude	9592
##pl	9593
##umb	9594
novel	9595
internship	9596
##asi	9597
##ets	9598
infiltrate	9599
##rent	9600
settlement	9601
##ct	9602
fridge	9603
barefoot	9604
8	9605
injured	9606
displays	9607
battlefield	9608
stake	9609
##dic	9610
qualifications	9611
plant	9612
slammed	9613
restroom	9614
bypass	9615
##oke	9616
diploma	9617
def	9618
junk	9619
1603	9620
colors	9621
muttering	9622
kidnapping	9623
humid	9624
splash	9625
dresser	9626
immortal	9627
practically	9628
moore	9629
staff	9630
.	9631
##uous	9632
regular	9633
observation	9634
error	9635
##kal	9636
boil	9637
wear	9638
##oured	9639
##rily	9640
basement	9641
escaping	9642
subjects	9643
button	9644
bacon	9645
eighth	9646
co	9647
truly	9648
##agi	9649
govern	9650
remember	9651
wrinkled	9652
different	9653
ticking	9654
surgical	9655
talks	9656
wives	9657
remind	9658
##ze	9659
reflected	9660
immediately	9661
firing	9662
doorbell	9663
italians	9664
focused	9665
budge	9666
una	9667
lengthy	9668
authentic	9669
bela	9670
unanimous	9671
ant	9672
gamble	9673
ins	9674
stil	9675
smaller	9676
bride	9677
tonight	9678
##tec	9679
farewell	9680
accurately	9681
inspiring	9682
envy	9683
cuckoo	9684
wow	9685
hall	9686
rebels	9687
excused	9688
zones	9689
they	9690
banned	9691
itself	9692
amusement	9693
always	9694
apologies	9695
invincible	9696
merger	9697
##osta	9698
biodiversity	9699
moving	9700
lethal	9701
leukemia	9702
outfit	9703
onto	9704
determined	9705
stored	9706
packed	9707
skin	9708
pleasant	9709
revive	9710
discourage	9711
uneasy	9712
gentle	9713
##di	9714
soothe	9715
manufacture	9716
breaking	9717
guitarist	9718
ceremonies	9719
sobbing	9720
price	9721
need	9722
taxi	9723
lawrence	9724
massive	9725
technical	9726
##bis	9727
ic	9728
##kawa	9729
accustomed	9730
boss	9731
exhibits	9732
rapidly	9733
vacation	9734
accent	9735
argument	9736
zee	9737
signal	9738
judging	9739
##mps	9740
##kill	9741
backstage	9742
wires	9743
funeral	9744
##tale	9745
er	9746
##tting	9747
products	9748
favour	9749
agony	9750
smallest	9751
nt	9752
oneself	9753
mouth	9754
sinn	9755
##hy	9756
pronounced	9757
villain	9758
city	9759
wrapped	9760
teddy	9761
beings	9762
repetition	9763
e	9764
gasoline	9765
around	9766
##ro	9767
train	9768
bo	9769
##para	9770
justified	9771
dependent	9772
constructed	9773
samples	9774
##udes	9775
links	9776
mattress	9777
colour	9778
ze	9779
##ation	9780
licensed	9781
imposed	9782
involving	9783
iceland	9784
mail	9785
predictable	9786
puff	9787
##inate	9788
request	9789
stunned	9790
worried	9791
female	9792
formulas	9793
reviewed	9794
sword	9795
accepted	9796
floppy	9797
lamps	9798
##pate	9799
liquor	9800
owners	9801
ultimate	9802
pork	9803
india	9804
##ent	9805
icy	9806
streetcar	9807
stiff	9808
##ates	9809
reader	9810
adopting	9811
justin	9812
##rret	9813
soluble	9814
eyes	9815
conclusion	9816
ears	9817
##leen	9818
most	9819
renewal	9820
pin	9821
##bar	9822
seller	9823
bat	9824
airlines	9825
carol	9826
list	9827
cable	9828
copies	9829
liar	9830
jesuit	9831
covered	9832
##urse	9833
eggs	9834
pep	9835
appear	9836
murmured	9837
installation	9838
avid	9839
stress	9840
melville	9841
squeak	9842
get	9843
noticing	9844
florida	9845
go	9846
##oning	9847
hinges	9848
##written	9849
swimmer	9850
possesses	9851
moderate	9852
pa	9853
converted	9854
al	9855
sleeper	9856
huge	9857
cringed	9858
##cede	9859
consume	9860
challenge	9861
is	9862
intends	9863
slides	9864
saddam	9865
lavender	9866
sequence	9867
remarkably	9868
scripts	9869
##atter	9870
erased	9871
served	9872
cowboy	9873
ambiguous	9874
contracts	9875
ina	9876
electricity	9877
method	9878
swallowing	9879
delivered	9880
tanned	9881
basketball	9882
wasted	9883
properly	9884
solutions	9885
fired	9886
hiring	9887
##cted	9888
jointly	9889
invaders	9890
skull	9891
intrigued	9892
##ional	9893
decreasing	9894
compounds	9895
misses	9896
##uan	9897
malice	9898
conflict	9899
crack	9900
pearls	9901
trying	9902
edged	9903
twitch	9904
joke	9905
tucson	9906
##gre	9907
troops	9908
suddenly	9909
gloom	9910
##fication	9911
delight	9912
medications	9913
##rag	9914
chores	9915
startling	9916
messy	9917
illustrated	9918
employer	9919
roommate	9920
billion	9921
chinese	9922
bearded	9923
donated	9924
##nel	9925
formidable	9926
strictly	9927
##edge	9928
diaries	9929
cabbage	9930
##zo	9931
##b	9932
##uting	9933
buried	9934
posing	9935
shu	9936
automatically	9937
kei	9938
act	9939
counts	9940
committee	9941
aba	9942
package	9943
announcement	9944
terrible	9945
competitor	9946
crazy	9947
mortgage	9948
influential	9949
seize	9950
hospitality	9951
tent	9952
##dae	9953
forcing	9954
help	9955
singapore	9956
butler	9957
tampa	9958
meantime	9959
cane	9960
traveled	9961
guide	9962
tri	9963
loved	9964
minds	9965
provoke	9966
station	9967
required	9968
##cum	9969
necessity	9970
cuff	9971
ignorance	9972
sydney	9973
##ross	9974
##bia	9975
dinosaur	9976
##ses	9977
spine	9978
scratch	9979
initially	9980
unnatural	9981
bush	9982
spotted	9983
##sive	9984
"	9985
semester	9986
##gur	9987
refuse	9988
displeasure	9989
postponed	9990
zebra	9991
astonishing	9992
killer	9993
swiped	9994
hurriedly	9995
ribbon	9996
metals	9997
shouldn	9998
choice	9999
sweet	10000
waiting	10001
##light	10002
sought	10003
cass	10004
ironic	10005
parts	10006
kobe	10007
locking	10008
##cat	10009
command	10010
mug	10011
layer	10012
##rang	10013
dance	10014
zero	10015
explosion	10016
fighter	10017
mani	10018
serving	10019
writes	10020
chiefly	10021
lev	10022
particularly	10023
direct	10024
softly	10025
situations	10026
horrible	10027
organizes	10028
revised	10029
description	10030
version	10031
screaming	10032
utterly	10033
quite	10034
useless	10035
dose	10036
miracle	10037
unmarried	10038
typing	10039
correctly	10040
pam	10041
alive	10042
book	10043
thud	10044
assassin	10045
paste	10046
thankful	10047
angry	10048
membership	10049
evacuated	10050
consist	10051
publication	10052
favorite	10053
lawyers	10054
prospect	10055
crate	10056
texted	10057
kenji	10058
dragged	10059
whereabouts	10060
offs	10061
hand	10062
banana	10063
personnel	10064
semi	10065
hungarian	10066
##ated	10067
reading	10068
federal	10069
##col	10070
resources	10071
briefly	10072
##sie	10073
pump	10074
hurled	10075
officer	10076
rituals	10077
honesty	10078
prevents	10079
cork	10080
##pi	10081
agreed	10082
tractor	10083
neglected	10084
levels	10085
ax	10086
brighter	10087
suffering	10088
swift	10089
usage	10090
silver	10091
kid	10092
consult	10093
sexy	10094
introduction	10095
u	10096
treat	10097
are	10098
##qua	10099
inca	10100
leap	10101
extension	10102
cause	10103
##put	10104
treatment	10105
jolted	10106
fingertips	10107
reminds	10108
painting	10109
password	10110
morally	10111
cured	10112
operated	10113
generous	10114
##ire	10115
handled	10116
aged	10117
dark	10118
avoid	10119
poets	10120
immigrants	10121
##quent	10122
freak	10123
slaves	10124
contrary	10125
tenure	10126
headed	10127
thousand	10128
occasional	10129
sim	10130
capacity	10131
ankle	10132
dutch	10133
eclipse	10134
solo	10135
release	10136
##vious	10137
skip	10138
##iling	10139
documentary	10140
basket	10141
buchanan	10142
slow	10143
acidic	10144
bared	10145
joker	10146
coaster	10147
##tia	10148
technician	10149
ot	10150
##ra	10151
##jong	10152
practice	10153
awkwardly	10154
##ppe	10155
##lm	10156
##ke	10157
collided	10158
softness	10159
vague	10160
s	10161
##mbit	10162
input	10163
program	10164
armies	10165
felt	10166
##eli	10167
consciousness	10168
view	10169
highway	10170
indians	10171
sizable	10172
ke	10173
spear	10174
syria	10175
heavily	10176
cheering	10177
cash	10178
inc	10179
blush	10180
signaled	10181
nec	10182
bricks	10183
1978	10184
heads	10185
dubois	10186
sort	10187
seed	10188
angrily	10189
##ika	10190
imaginary	10191
chat	10192
composure	10193
bulky	10194
##bri	10195
efficient	10196
char	10197
differed	10198
##eg	10199
motorcycle	10200
collection	10201
##therapy	10202
saturdays	10203
mystery	10204
precisely	10205
##pet	10206
effect	10207
bash	10208
staunch	10209
proved	10210
capable	10211
salty	10212
mainstream	10213
intersect	10214
dye	10215
benefactor	10216
railing	10217
creepy	10218
whole	10219
result	10220
rental	10221
mexico	10222
clears	10223
affected	10224
sidewalks	10225
cook	10226
brings	10227
advocating	10228
mutual	10229
transported	10230
allergic	10231
darwin	10232
hedge	10233
housing	10234
##ual	10235
##drop	10236
karate	10237
tied	10238
husband	10239
salmon	10240
##idi	10241
je	10242
prompted	10243
asthma	10244
##iss	10245
fit	10246
wiped	10247
tap	10248
97	10249
2020	10250
original	10251
decoration	10252
aston	10253
swearing	10254
cabaret	10255
##cala	10256
management	10257
adventurous	10258
##cious	10259
diagnosis	10260
fills	10261
audrey	10262
areas	10263
stack	10264
##hn	10265
##loh	10266
apologize	10267
betray	10268
elizabeth	10269
fuji	10270
hen	10271
jesus	10272
interviewed	10273
cha	10274
beaver	10275
##tens	10276
aloud	10277
requested	10278
rub	10279
dam	10280
panel	10281
continues	10282
integrity	10283
shoulder	10284
sheriff	10285
swans	10286
churches	10287
chess	10288
cargo	10289
##yang	10290
cups	10291
##ura	10292
just	10293
orchard	10294
rare	10295
philosophers	10296
mole	10297
spike	10298
unbeaten	10299
##icate	10300
thirsty	10301
nile	10302
##ant	10303
flawless	10304
submit	10305
hunters	10306
##balls	10307
toe	10308
warring	10309
months	10310
mortal	10311
archaeology	10312
practices	10313
##isi	10314
pitched	10315
hip	10316
mass	10317
paused	10318
difficulties	10319
exit	10320
celebrate	10321
nonetheless	10322
##ious	10323
bridges	10324
##via	10325
walt	10326
museums	10327
everything	10328
usually	10329
formally	10330
included	10331
##gli	10332
bedside	10333
field	10334
stayed	10335
intensity	10336
pm	10337
grocery	10338
##ishly	10339
reasons	10340
once	10341
interrupted	10342
mafia	10343
manuscript	10344
nectar	10345
billions	10346
off	10347
bars	10348
deciding	10349
leaned	10350
outlined	10351
invested	10352
flower	10353
vows	10354
cp	10355
why	10356
bonds	10357
offended	10358
obama	10359
32	10360
##ash	10361
rubbing	10362
preparation	10363
##ference	10364
perception	10365
##kra	10366
##it	10367
carbon	10368
feed	10369
odd	10370
##ast	10371
##tar	10372
bats	10373
giant	10374
contacted	10375
luke	10376
##ection	10377
pour	10378
play	10379
spouse	10380
passing	10381
established	10382
midst	10383
hardly	10384
katrina	10385
transformed	10386
itunes	10387
##lou	10388
chill	10389
experiencing	10390
##wr	10391
imminent	10392
glitter	10393
willed	10394
cartoon	10395
hostile	10396
rivers	10397
end	10398
##ever	10399
briefcase	10400
skirts	10401
plays	10402
##val	10403
conceived	10404
bicycles	10405
utmost	10406
##ifier	10407
##ited	10408
performer	10409
matching	10410
##ama	10411
transfer	10412
bet	10413
grasped	10414
skimmed	10415
##ggy	10416
wielding	10417
corrected	10418
libel	10419
adventure	10420
##liner	10421
glad	10422
cremated	10423
era	10424
liver	10425
repeat	10426
appeared	10427
conquest	10428
##rce	10429
neighbourhood	10430
princess	10431
neighboring	10432
##broken	10433
##nee	10434
creep	10435
photographs	10436
silhouette	10437
definitely	10438
ambitious	10439
guessing	10440
cart	10441
fen	10442
1874	10443
##vent	10444
guards	10445
den	10446
well	10447
##lled	10448
attic	10449
scott	10450
broadcast	10451
slippery	10452
appreciation	10453
throwing	10454
##na	10455
member	10456
shame	10457
sights	10458
bal	10459
western	10460
##coming	10461
pounding	10462
pierre	10463
colonies	10464
deleted	10465
basin	10466
mexican	10467
##liness	10468
bombs	10469
miracles	10470
incomplete	10471
nations	10472
buddies	10473
fia	10474
andes	10475
concern	10476
drove	10477
prohibits	10478
bruise	10479
desperation	10480
reacts	10481
berlin	10482
rear	10483
natural	10484
nerve	10485
ecuador	10486
ce	10487
hog	10488
curtain	10489
imprisoned	10490
carries	10491
mozart	10492
ghostly	10493
##sed	10494
fifteenth	10495
visits	10496
studied	10497
prosperity	10498
collapsed	10499
prohibited	10500
##cycle	10501
ace	10502
buy	10503
manager	10504
functions	10505
divided	10506
confiscated	10507
added	10508
villagers	10509
revolt	10510
##cture	10511
expect	10512
rally	10513
pseudo	10514
hurts	10515
corrupt	10516
marital	10517
disneyland	10518
hind	10519
load	10520
kidnapped	10521
##uso	10522
lip	10523
aware	10524
##azi	10525
financially	10526
rolls	10527
##sr	10528
snap	10529
exercises	10530
techniques	10531
##fide	10532
##ink	10533
attributed	10534
ugly	10535
other	10536
trail	10537
##uate	10538
##orous	10539
grass	10540
sucking	10541
ideal	10542
##bag	10543
paintings	10544
##ater	10545
fish	10546
vice	10547
moon	10548
rifles	10549
##child	10550
apartment	10551
ro	10552
##ify	10553
donate	10554
doomed	10555
freud	10556
europeans	10557
rockets	10558
retreat	10559
unused	10560
objective	10561
shipment	10562
oyster	10563
objected	10564
commonplace	10565
del	10566
donor	10567
hays	10568
##taro	10569
jo	10570
accomplished	10571
topping	10572
luxurious	10573
answered	10574
shaggy	10575
timing	10576
expressed	10577
demon	10578
teased	10579
##inating	10580
analyzing	10581
backpack	10582
anniversary	10583
glow	10584
record	10585
batting	10586
derelict	10587
wool	10588
educated	10589
stir	10590
atlas	10591
wheelchair	10592
consecutive	10593
thrown	10594
marathon	10595
miles	10596
inspect	10597
lotus	10598
##oint	10599
##cie	10600
spell	10601
calendar	10602
willingness	10603
handles	10604
escort	10605
##bled	10606
respected	10607
topic	10608
1954	10609
gunpowder	10610
branch	10611
attached	10612
##usion	10613
oldest	10614
herbert	10615
experience	10616
foreigner	10617
1970	10618
armchair	10619
device	10620
##lary	10621
1940	10622
instructed	10623
sails	10624
doll	10625
knocks	10626
allegations	10627
allows	10628
drums	10629
pretty	10630
alert	10631
wounded	10632
python	10633
##logist	10634
genoa	10635
positive	10636
##das	10637
advanced	10638
forgiven	10639
mari	10640
succession	10641
backed	10642
matter	10643
##uer	10644
dowry	10645
objection	10646
described	10647
adds	10648
places	10649
estimate	10650
gauge	10651
bitterly	10652
teach	10653
par	10654
harmful	10655
##av	10656
##lco	10657
tentatively	10658
stations	10659
the	10660
care	10661
##vor	10662
almond	10663
corn	10664
faces	10665
##rd	10666
beforehand	10667
brigade	10668
responsibility	10669
holidays	10670
##cle	10671
asks	10672
grinding	10673
box	10674
fangs	10675
victorious	10676
judge	10677
slightest	10678
documentaries	10679
emergencies	10680
intend	10681
stern	10682
##emi	10683
wonderland	10684
##uven	10685
daylight	10686
ashes	10687
airports	10688
graffiti	10689
quotes	10690
compensation	10691
##tr	10692
tomato	10693
writers	10694
trash	10695
soaked	10696
uncomfortable	10697
110	10698
##fl	10699
tool	10700
solomon	10701
tree	10702
##te	10703
canned	10704
lithuania	10705
bea	10706
erupted	10707
ford	10708
advisers	10709
installed	10710
disabilities	10711
interruption	10712
memorable	10713
suspiciously	10714
peppers	10715
stretch	10716
##sel	10717
##worthy	10718
unsuitable	10719
inherited	10720
pulled	10721
temperament	10722
hung	10723
harm	10724
cows	10725
floors	10726
sentimental	10727
pets	10728
flowers	10729
reference	10730
thanksgiving	10731
attempted	10732
toast	10733
sometime	10734
bothering	10735
exciting	10736
forgiveness	10737
mistakes	10738
leaves	10739
poems	10740
killers	10741
absorbed	10742
abuses	10743
##uming	10744
takeoff	10745
forums	10746
leapt	10747
distant	10748
picking	10749
hollywood	10750
000	10751
swedish	10752
##ia	10753
##ling	10754
type	10755
sigh	10756
outdoors	10757
smelled	10758
encountered	10759
boots	10760
refrain	10761
trade	10762
ethnic	10763
slump	10764
##lum	10765
ten	10766
toilets	10767
##raz	10768
skill	10769
analysis	10770
meat	10771
fate	10772
arrows	10773
##dier	10774
##acious	10775
deco	10776
eastwood	10777
future	10778
knowledge	10779
ordered	10780
yale	10781
##ber	10782
rig	10783
secretaries	10784
struck	10785
iphone	10786
motel	10787
firms	10788
ceramics	10789
approaching	10790
beethoven	10791
evicted	10792
player	10793
newspaper	10794
ting	10795
eng	10796
##tem	10797
cattle	10798
addict	10799
slipping	10800
tokyo	10801
socks	10802
freed	10803
joining	10804
grandma	10805
stanza	10806
scream	10807
denied	10808
enters	10809
built	10810
saturday	10811
##ther	10812
evidently	10813
flick	10814
engineer	10815
fi	10816
tracks	10817
gan	10818
fits	10819
criticizing	10820
medal	10821
suffer	10822
videos	10823
diagnosed	10824
##ina	10825
fbi	10826
having	10827
christopher	10828
caf	10829
milk	10830
white	10831
owe	10832
sunglasses	10833
##guard	10834
##enia	10835
catholic	10836
swam	10837
vehicles	10838
carved	10839
oblivious	10840
discoveries	10841
consumer	10842
printing	10843
bother	10844
##ened	10845
classmates	10846
outdated	10847
##lating	10848
##ect	10849
conditioning	10850
wander	10851
trophy	10852
economists	10853
gunshot	10854
adding	10855
neatly	10856
urges	10857
london	10858
##due	10859
greek	10860
boom	10861
##rting	10862
spaceship	10863
##dable	10864
tufts	10865
sting	10866
shirt	10867
##keeping	10868
##pis	10869
relation	10870
ii	10871
championship	10872
cards	10873
satisfy	10874
dialect	10875
automobile	10876
strips	10877
dismissed	10878
##rov	10879
charles	10880
superficial	10881
ad	10882
introduced	10883
accuse	10884
insights	10885
mysteriously	10886
questions	10887
##utation	10888
##ils	10889
blues	10890
starboard	10891
choices	10892
humidity	10893
civilized	10894
pillows	10895
dynamite	10896
dying	10897
wake	10898
swallow	10899
midnight	10900
block	10901
pay	10902
back	10903
decent	10904
attacker	10905
repair	10906
fortune	10907
commercial	10908
##aries	10909
spreads	10910
opener	10911
colonists	10912
##mal	10913
words	10914
can	10915
1950	10916
previously	10917
greatly	10918
pointed	10919
docked	10920
breeze	10921
passed	10922
changing	10923
refusing	10924
upper	10925
protest	10926
demanding	10927
somebody	10928
wooden	10929
##h	10930
landed	10931
witnessed	10932
cakes	10933
pillow	10934
contributes	10935
territories	10936
rarely	10937
maker	10938
purposely	10939
st	10940
oxford	10941
trained	10942
creek	10943
##ster	10944
candles	10945
sad	10946
speech	10947
beds	10948
advises	10949
astronaut	10950
struggled	10951
model	10952
##ful	10953
large	10954
bulgarian	10955
globally	10956
languages	10957
destination	10958
invariably	10959
cleveland	10960
toes	10961
thames	10962
leaders	10963
##ites	10964
volunteers	10965
atoms	10966
thought	10967
nasty	10968
unlocked	10969
##uc	10970
seventeenth	10971
insult	10972
w	10973
##imated	10974
##tan	10975
mohammed	10976
pressing	10977
utilizes	10978
peach	10979
swamp	10980
heavier	10981
cosmetics	10982
mathematics	10983
copied	10984
miniature	10985
prayed	10986
wanna	10987
regards	10988
gi	10989
creatures	10990
kettle	10991
generals	10992
tissues	10993
uncanny	10994
anybody	10995
##birds	10996
club	10997
proportion	10998
burning	10999
expected	11000
throat	11001
prepare	11002
howling	11003
allowance	11004
intervene	11005
conducted	11006
unclear	11007
##press	11008
knock	11009
##ca	11010
sheets	11011
golf	11012
ste	11013
muscles	11014
##met	11015
august	11016
astonished	11017
brussels	11018
org	11019
assert	11020
aboard	11021
lied	11022
broadcasts	11023
stopped	11024
where	11025
trick	11026
en	11027
##uma	11028
achilles	11029
##lee	11030
planet	11031
heroes	11032
average	11033
rev	11034
##rigues	11035
seemed	11036
pride	11037
kids	11038
wire	11039
dreamer	11040
two	11041
negotiations	11042
guarantee	11043
##sey	11044
gaul	11045
fare	11046
knowing	11047
mix	11048
parliament	11049
default	11050
rice	11051
restrained	11052
shrugged	11053
1888	11054
##ering	11055
golfer	11056
named	11057
niece	11058
##oid	11059
butterflies	11060
dragging	11061
investigator	11062
pound	11063
launched	11064
wins	11065
anxiety	11066
##well	11067
unemployed	11068
po	11069
hires	11070
parties	11071
2007	11072
carrie	11073
special	11074
entire	11075
sitting	11076
ended	11077
razor	11078
refused	11079
drugs	11080
friend	11081
parcel	11082
##iring	11083
dressing	11084
birth	11085
stem	11086
loaded	11087
##lessly	11088
diplomatic	11089
happily	11090
notre	11091
##ows	11092
##stle	11093
survey	11094
ignored	11095
terminology	11096
roll	11097
stool	11098
media	11099
des	11100
bottom	11101
triangle	11102
decided	11103
angel	11104
ducked	11105
halted	11106
pushed	11107
custom	11108
foolish	11109
any	11110
leaning	11111
jet	11112
devout	11113
whisper	11114
palms	11115
still	11116
anyone	11117
bald	11118
accelerate	11119
legion	11120
smells	11121
touches	11122
chased	11123
##ima	11124
produces	11125
crop	11126
bang	11127
consists	11128
suburb	11129
eighty	11130
mandate	11131
jacket	11132
whispered	11133
utter	11134
decrease	11135
excess	11136
beam	11137
cathedral	11138
bank	11139
clever	11140
appendix	11141
stated	11142
injury	11143
mag	11144
feature	11145
##gers	11146
nervously	11147
accomplish	11148
curt	11149
harvard	11150
tempting	11151
fr	11152
corporal	11153
movement	11154
administration	11155
becomes	11156
greenland	11157
disappearance	11158
approved	11159
##ky	11160
1994	11161
download	11162
emphasis	11163
##ont	11164
perceive	11165
bu	11166
satisfactory	11167
##mot	11168
containers	11169
son	11170
of	11171
marijuana	11172
debt	11173
concentrating	11174
organization	11175
limit	11176
gradually	11177
parents	11178
waits	11179
assistance	11180
praised	11181
exhausted	11182
flash	11183
panting	11184
dormitory	11185
valor	11186
##acies	11187
bee	11188
mats	11189
march	11190
##ored	11191
tim	11192
glasses	11193
wrong	11194
##red	11195
cut	11196
resemblance	11197
##rky	11198
drug	11199
cell	11200
reconciled	11201
moths	11202
survival	11203
lush	11204
given	11205
step	11206
paralyzed	11207
newborn	11208
shot	11209
directly	11210
whitman	11211
soaking	11212
crosses	11213
german	11214
consideration	11215
flight	11216
addition	11217
tangled	11218
sincere	11219
devastating	11220
##ied	11221
messages	11222
##alo	11223
prone	11224
##by	11225
respond	11226
margins	11227
george	11228
##ind	11229
drops	11230
world	11231
##cci	11232
surveillance	11233
##mon	11234
stepped	11235
smirk	11236
indicates	11237
distinct	11238
##uls	11239
brink	11240
countries	11241
##cr	11242
imagine	11243
relaxed	11244
atlanta	11245
fancy	11246
john	11247
editing	11248
hare	11249
documents	11250
collisions	11251
##aw	11252
affects	11253
labels	11254
##olic	11255
hysterical	11256
self	11257
telescope	11258
56	11259
responsibilities	11260
wears	11261
baffled	11262
cheerfully	11263
mount	11264
&	11265
abducted	11266
hearts	11267
17	11268
sources	11269
aristocracy	11270
monsoon	11271
makes	11272
guys	11273
recent	11274
slowing	11275
##ien	11276
consulting	11277
inconsistent	11278
avoiding	11279
racial	11280
velvet	11281
##sg	11282
sack	11283
bio	11284
telling	11285
sahara	11286
institutions	11287
killings	11288
excavation	11289
earthquake	11290
pilgrimage	11291
abruptly	11292
hits	11293
dwell	11294
vegetarian	11295
tub	11296
haunted	11297
newcomers	11298
sweetheart	11299
tobacco	11300
marilyn	11301
appreciated	11302
germanic	11303
cannon	11304
h	11305
womb	11306
drugged	11307
live	11308
dominated	11309
olympics	11310
done	11311
detailed	11312
door	11313
flashbacks	11314
stole	11315
squid	11316
both	11317
##shot	11318
vivid	11319
basic	11320
brick	11321
advantages	11322
five	11323
rage	11324
hawaiian	11325
gig	11326
finance	11327
##er	11328
fill	11329
##gible	11330
##ias	11331
percent	11332
##so	11333
nicely	11334
##cation	11335
lightly	11336
##ris	11337
unesco	11338
consultant	11339
##hop	11340
douglas	11341
dreamed	11342
proudly	11343
hiroshi	11344
owner	11345
liable	11346
gulf	11347
differing	11348
scared	11349
imply	11350
worries	11351
jimmy	11352
exhibit	11353
bewildered	11354
kitchen	11355
emi	11356
contemplating	11357
north	11358
nearly	11359
slipped	11360
specimen	11361
prejudice	11362
##rm	11363
quilt	11364
alcoholism	11365
mysterious	11366
##tate	11367
inspired	11368
decisions	11369
dinner	11370
wagon	11371
blouse	11372
houses	11373
##ecure	11374
choir	11375
worked	11376
##ue	11377
ri	11378
supplied	11379
bulbs	11380
players	11381
13	11382
trouble	11383
##ts	11384
vulgar	11385
summer	11386
originally	11387
surface	11388
##lge	11389
attitude	11390
correctional	11391
ripped	11392
birds	11393
breathe	11394
dea	11395
##osing	11396
##el	11397
arranging	11398
lesson	11399
aback	11400
sailed	11401
refugee	11402
journeys	11403
##vert	11404
clinical	11405
quietly	11406
ignoring	11407
shortest	11408
cancel	11409
plan	11410
##cl	11411
courts	11412
breathing	11413
biological	11414
##tation	11415
requires	11416
debate	11417
olympic	11418
dragon	11419
constitutional	11420
knit	11421
scala	11422
video	11423
drawer	11424
gang	11425
assured	11426
including	11427
reasoning	11428
somewhat	11429
winning	11430
sociological	11431
sorrow	11432
pays	11433
christian	11434
rights	11435
island	11436
recommendation	11437
pickup	11438
boundaries	11439
messenger	11440
glove	11441
notes	11442
competing	11443
##stand	11444
scheme	11445
argues	11446
##si	11447
mimic	11448
illegal	11449
holding	11450
gets	11451
uncertainty	11452
pillar	11453
purse	11454
strained	11455
childhood	11456
relay	11457
borders	11458
her	11459
kamal	11460
concealed	11461
crushed	11462
composer	11463
##bau	11464
halloween	11465
admission	11466
##owa	11467
##bo	11468
recipes	11469
ut	11470
basis	11471
whoever	11472
cushion	11473
##loading	11474
##rated	11475
noises	11476
acc	11477
replacing	11478
steps	11479
legislation	11480
mouse	11481
prices	11482
mule	11483
psychological	11484
idiots	11485
rumor	11486
addressed	11487
watered	11488
clues	11489
##unt	11490
ice	11491
bowed	11492
flood	11493
cafeteria	11494
ambition	11495
c	11496
##creen	11497
tea	11498
residue	11499
severe	11500
violently	11501
swim	11502
shouted	11503
sit	11504
says	11505
##dd	11506
shelter	11507
##shu	11508
experiments	11509
##ffle	11510
##bell	11511
engineers	11512
guests	11513
volcano	11514
dictator	11515
service	11516
dealings	11517
behind	11518
servant	11519
cola	11520
she	11521
anthropology	11522
there	11523
##zie	11524
bless	11525
biggest	11526
portion	11527
refuge	11528
specialty	11529
##oun	11530
picks	11531
##ination	11532
tightly	11533
companion	11534
revealing	11535
sticking	11536
##ten	11537
##ride	11538
coma	11539
fuse	11540
cursing	11541
bounce	11542
from	11543
sac	11544
patted	11545
integral	11546
floods	11547
blossom	11548
father	11549
problem	11550
designer	11551
underneath	11552
democratic	11553
chicken	11554
##ius	11555
negotiated	11556
soldiers	11557
##urne	11558
##rac	11559
12th	11560
dealing	11561
##dis	11562
##ractive	11563
francois	11564
##eum	11565
steep	11566
bourbon	11567
actual	11568
cavern	11569
telegraph	11570
americans	11571
momentarily	11572
arms	11573
##phi	11574
mat	11575
looking	11576
heroic	11577
daughter	11578
comet	11579
lung	11580
chases	11581
##des	11582
window	11583
bites	11584
handwriting	11585
settling	11586
##sonic	11587
conquered	11588
miller	11589
values	11590
pitchfork	11591
marsh	11592
comedian	11593
issue	11594
milling	11595
loyalty	11596
elders	11597
excitement	11598
athletic	11599
attacked	11600
wishing	11601
ref	11602
snapped	11603
mice	11604
coward	11605
painter	11606
canals	11607
join	11608
##ono	11609
tuberculosis	11610
director	11611
albert	11612
fishermen	11613
net	11614
dates	11615
##uded	11616
germany	11617
spiked	11618
ships	11619
ambush	11620
creativity	11621
chairman	11622
eastern	11623
stung	11624
uses	11625
salesman	11626
senior	11627
sailor	11628
intention	11629
processed	11630
cleaner	11631
coated	11632
convince	11633
30th	11634
twisted	11635
charity	11636
‘	11637
six	11638
disagreement	11639
suppress	11640
stood	11641
m	11642
pencil	11643
pain	11644
gal	11645
luckily	11646
disposal	11647
regrets	11648
rehabilitation	11649
dining	11650
scheduled	11651
##ath	11652
canadian	11653
backwards	11654
identify	11655
encourage	11656
bored	11657
essay	11658
attorneys	11659
force	11660
telephone	11661
oriented	11662
##tion	11663
handicap	11664
it	11665
escapes	11666
nailed	11667
anonymous	11668
whites	11669
recurring	11670
bulgaria	11671
kilometer	11672
geometry	11673
flatly	11674
reflection	11675
increasing	11676
##nik	11677
##icing	11678
gymnastics	11679
vessel	11680
soil	11681
soap	11682
stunt	11683
recognizing	11684
goes	11685
shorter	11686
hectares	11687
caesar	11688
diminished	11689
coliseum	11690
courage	11691
owning	11692
caller	11693
changes	11694
purchases	11695
christianity	11696
fails	11697
younger	11698
sportsman	11699
our	11700
after	11701
lot	11702
elves	11703
lo	11704
oldies	11705
onions	11706
panic	11707
belt	11708
##dly	11709
apes	11710
kangaroo	11711
denominations	11712
180	11713
correction	11714
upstate	11715
years	11716
wallet	11717
commuter	11718
helped	11719
priority	11720
dar	11721
outlook	11722
interfered	11723
scale	11724
tune	11725
substances	11726
manners	11727
able	11728
edison	11729
##rites	11730
threatened	11731
belgium	11732
into	11733
analog	11734
harassed	11735
dna	11736
##ction	11737
fluid	11738
lying	11739
wilde	11740
breath	11741
behalf	11742
hillside	11743
usual	11744
calculate	11745
facebook	11746
##ugh	11747
crow	11748
##ate	11749
trial	11750
engineering	11751
scrubbed	11752
marrying	11753
straightening	11754
spill	11755
inadequate	11756
hadn	11757
waited	11758
wardrobe	11759
##man	11760
##nick	11761
##ity	11762
sensible	11763
buys	11764
husbands	11765
cr	11766
zealand	11767
##ick	11768
turns	11769
swore	11770
gorilla	11771
umbrella	11772
##ually	11773
hyper	11774
colder	11775
canadians	11776
shut	11777
attending	11778
wedding	11779
alien	11780
excel	11781
advantage	11782
applicable	11783
deepest	11784
craving	11785
##raf	11786
kylie	11787
finding	11788
furious	11789
former	11790
mosques	11791
fail	11792
emergency	11793
atrocities	11794
incredibly	11795
police	11796
successfully	11797
birmingham	11798
toad	11799
divorce	11800
##rand	11801
hairs	11802
confrontation	11803
##text	11804
passions	11805
twinkle	11806
bribery	11807
depression	11808
though	11809
optimism	11810
fifty	11811
slave	11812
realise	11813
joe	11814
bulb	11815
quieter	11816
complaints	11817
choosing	11818
pedestrians	11819
hairy	11820
##lau	11821
##nch	11822
##sun	11823
sniffed	11824
##truct	11825
pocket	11826
shrieked	11827
clown	11828
plank	11829
him	11830
closes	11831
course	11832
##card	11833
appeals	11834
waves	11835
considerable	11836
##brush	11837
wheels	11838
0	11839
vegetables	11840
elect	11841
##ary	11842
crisis	11843
treaty	11844
minerals	11845
stolen	11846
sciences	11847
insurance	11848
##8	11849
tens	11850
##itated	11851
salute	11852
ourselves	11853
arab	11854
poe	11855
fulfilled	11856
##cer	11857
flu	11858
somewhere	11859
riding	11860
breakdown	11861
blessed	11862
toilet	11863
gunn	11864
transition	11865
letters	11866
excellent	11867
disgust	11868
between	11869
famous	11870
patience	11871
sprang	11872
resignation	11873
##ou	11874
strategy	11875
ties	11876
kiev	11877
unreasonable	11878
praying	11879
inhabitants	11880
politely	11881
some	11882
worst	11883
beak	11884
vowed	11885
illusion	11886
across	11887
accused	11888
topics	11889
appears	11890
whatsoever	11891
aunt	11892
fragments	11893
stan	11894
continuously	11895
##ude	11896
steer	11897
##rift	11898
kara	11899
spend	11900
tropical	11901
weight	11902
sells	11903
fort	11904
commonly	11905
cream	11906
skeleton	11907
##bla	11908
locks	11909
claus	11910
ash	11911
##ei	11912
thirst	11913
##time	11914
likely	11915
crossbow	11916
falls	11917
stars	11918
photographic	11919
australian	11920
smile	11921
trades	11922
dunn	11923
illustrate	11924
enigma	11925
ou	11926
cop	11927
steam	11928
measures	11929
##berries	11930
day	11931
waved	11932
toyota	11933
patio	11934
bulldog	11935
grammatical	11936
hospital	11937
faithful	11938
events	11939
consisted	11940
railway	11941
automobiles	11942
gardens	11943
theme	11944
shouts	11945
narrative	11946
min	11947
debating	11948
##ander	11949
heal	11950
##med	11951
24	11952
1955	11953
##uding	11954
preservation	11955
polish	11956
cloudy	11957
roger	11958
sales	11959
piercing	11960
suggested	11961
##xious	11962
daily	11963
definite	11964
asia	11965
com	11966
##bies	11967
front	11968
michael	11969
trains	11970
charter	11971
z	11972
d	11973
stocks	11974
deserted	11975
##lock	11976
cab	11977
##lie	11978
pleasantly	11979
motive	11980
flow	11981
inform	11982
fencing	11983
##uing	11984
inherently	11985
been	11986
among	11987
desires	11988
concerning	11989
watching	11990
##ach	11991
thread	11992
mountains	11993
especially	11994
line	11995
##quitable	11996
writing	11997
reef	11998
interview	11999
civilizations	12000
films	12001
millions	12002
marine	12003
stove	12004
beg	12005
february	12006
##day	12007
lawn	12008
signs	12009
brightly	12010
swiss	12011
##ism	12012
depart	12013
without	12014
hour	12015
heartbreak	12016
##nant	12017
low	12018
hu	12019
longing	12020
libraries	12021
nh	12022
hottest	12023
##hak	12024
delighted	12025
##atics	12026
run	12027
traditions	12028
raul	12029
bragg	12030
starting	12031
elevator	12032
fingernails	12033
##print	12034
crane	12035
nerves	12036
hatred	12037
executives	12038
expenses	12039
##ery	12040
currency	12041
picket	12042
di	12043
12	12044
carpets	12045
dizzy	12046
slam	12047
##person	12048
cables	12049
desk	12050
governments	12051
wife	12052
##af	12053
heights	12054
creaked	12055
charities	12056
nana	12057
##ut	12058
undergone	12059
surviving	12060
##em	12061
appoint	12062
wheel	12063
bolts	12064
muttered	12065
eliminating	12066
personality	12067
strung	12068
##tical	12069
intensive	12070
pressured	12071
lisa	12072
bitter	12073
##placed	12074
election	12075
richter	12076
snowy	12077
rival	12078
hepburn	12079
slowed	12080
in	12081
5	12082
##um	12083
oasis	12084
misleading	12085
translators	12086
shed	12087
wide	12088
researchers	12089
distinction	12090
##tama	12091
anticipated	12092
##hore	12093
needy	12094
unharmed	12095
shield	12096
thinks	12097
promising	12098
responded	12099
taller	12100
running	12101
compulsory	12102
thinking	12103
t	12104
##ier	12105
freshman	12106
occasionally	12107
rubbish	12108
dots	12109
##ashi	12110
purple	12111
repeats	12112
kilometers	12113
##pers	12114
##etic	12115
exam	12116
backstroke	12117
unofficially	12118
ac	12119
responsible	12120
lin	12121
recently	12122
lead	12123
agencies	12124
4th	12125
sat	12126
climate	12127
protective	12128
gained	12129
visible	12130
browser	12131
saloon	12132
develop	12133
salaries	12134
duel	12135
inspire	12136
manpower	12137
companions	12138
##shida	12139
great	12140
ally	12141
laid	12142
kept	12143
##sh	12144
sniffing	12145
indeed	12146
##firm	12147
rode	12148
local	12149
tents	12150
fastened	12151
##run	12152
disk	12153
joy	12154
last	12155
opinions	12156
innocence	12157
recognized	12158
99	12159
domestic	12160
accuracy	12161
##uri	12162
podcast	12163
count	12164
keep	12165
bumps	12166
##rid	12167
bananas	12168
round	12169
boxes	12170
sided	12171
ads	12172
fewer	12173
islam	12174
conditioned	12175
visitor	12176
305	12177
edition	12178
sanctions	12179
corporate	12180
ate	12181
puppy	12182
losers	12183
grinned	12184
giggled	12185
##ga	12186
fields	12187
##nation	12188
stationed	12189
correct	12190
upright	12191
##ille	12192
pairs	12193
accounts	12194
remotely	12195
missions	12196
more	12197
frowning	12198
emotions	12199
move	12200
committing	12201
farther	12202
tee	12203
parked	12204
sham	12205
fore	12206
blinked	12207
shakespeare	12208
plunged	12209
jew	12210
accredited	12211
bully	12212
hydrogen	12213
ham	12214
transplant	12215
##over	12216
##fle	12217
spice	12218
trim	12219
survivor	12220
criticism	12221
overturned	12222
declaring	12223
blessing	12224
##rt	12225
jumps	12226
rosewood	12227
rematch	12228
thoughtful	12229
masterpiece	12230
rugby	12231
accomplishments	12232
tragic	12233
bloom	12234
myth	12235
made	12236
beard	12237
##boat	12238
hardware	12239
lid	12240
explode	12241
tumor	12242
lawsuit	12243
buddy	12244
show	12245
sticks	12246
licked	12247
amended	12248
